{
  "version": "1.0",
  "truncation": null,
  "padding": null,
  "added_tokens": [
    {
      "id": 0,
      "content": "<|pad|>",
      "single_word": false,
      "lstrip": false,
      "rstrip": false,
      "normalized": false,
      "special": true
    },
    {
      "id": 1,
      "content": "<|system|>",
      "single_word": false,
      "lstrip": false,
      "rstrip": false,
      "normalized": false,
      "special": true
    },
    {
      "id": 2,
      "content": "<|user|>",
      "single_word": false,
      "lstrip": false,
      "rstrip": false,
      "normalized": false,
      "special": true
    },
    {
      "id": 3,
      "content": "<|assistant|>",
      "single_word": false,
      "lstrip": false,
      "rstrip": false,
      "normalized": false,
      "special": true
    },
    {
      "id": 4,
      "content": "<|tool|>",
      "single_word": false,
      "lstrip": false,
      "rstrip": false,
      "normalized": false,
      "special": true
    },
    {
      "id": 5,
      "content": "<|end_message|>",
      "single_word": false,
      "lstrip": false,
      "rstrip": false,
      "normalized": false,
      "special": true
    },
    {
      "id": 6,
      "content": "<|think|>",
      "single_word": false,
      "lstrip": false,
      "rstrip": false,
      "normalized": false,
      "special": true
    },
    {
      "id": 7,
      "content": "<|end_think|>",
      "single_word": false,
      "lstrip": false,
      "rstrip": false,
      "normalized": false,
      "special": true
    },
    {
      "id": 8,
      "content": "<|tool_call|>",
      "single_word": false,
      "lstrip": false,
      "rstrip": false,
      "normalized": false,
      "special": true
    },
    {
      "id": 9,
      "content": "<|end_tool_call|>",
      "single_word": false,
      "lstrip": false,
      "rstrip": false,
      "normalized": false,
      "special": true
    },
    {
      "id": 10,
      "content": "<|AA.A|>",
      "single_word": false,
      "lstrip": false,
      "rstrip": false,
      "normalized": false,
      "special": true
    },
    {
      "id": 11,
      "content": "<|AA.B|>",
      "single_word": false,
      "lstrip": false,
      "rstrip": false,
      "normalized": false,
      "special": true
    },
    {
      "id": 12,
      "content": "<|AA.C|>",
      "single_word": false,
      "lstrip": false,
      "rstrip": false,
      "normalized": false,
      "special": true
    },
    {
      "id": 13,
      "content": "<|AA.D|>",
      "single_word": false,
      "lstrip": false,
      "rstrip": false,
      "normalized": false,
      "special": true
    },
    {
      "id": 14,
      "content": "<|AA.E|>",
      "single_word": false,
      "lstrip": false,
      "rstrip": false,
      "normalized": false,
      "special": true
    },
    {
      "id": 15,
      "content": "<|AA.F|>",
      "single_word": false,
      "lstrip": false,
      "rstrip": false,
      "normalized": false,
      "special": true
    },
    {
      "id": 16,
      "content": "<|AA.G|>",
      "single_word": false,
      "lstrip": false,
      "rstrip": false,
      "normalized": false,
      "special": true
    },
    {
      "id": 17,
      "content": "<|AA.H|>",
      "single_word": false,
      "lstrip": false,
      "rstrip": false,
      "normalized": false,
      "special": true
    },
    {
      "id": 18,
      "content": "<|AA.I|>",
      "single_word": false,
      "lstrip": false,
      "rstrip": false,
      "normalized": false,
      "special": true
    },
    {
      "id": 19,
      "content": "<|AA.J|>",
      "single_word": false,
      "lstrip": false,
      "rstrip": false,
      "normalized": false,
      "special": true
    },
    {
      "id": 20,
      "content": "<|AA.K|>",
      "single_word": false,
      "lstrip": false,
      "rstrip": false,
      "normalized": false,
      "special": true
    },
    {
      "id": 21,
      "content": "<|AA.L|>",
      "single_word": false,
      "lstrip": false,
      "rstrip": false,
      "normalized": false,
      "special": true
    },
    {
      "id": 22,
      "content": "<|AA.M|>",
      "single_word": false,
      "lstrip": false,
      "rstrip": false,
      "normalized": false,
      "special": true
    },
    {
      "id": 23,
      "content": "<|AA.N|>",
      "single_word": false,
      "lstrip": false,
      "rstrip": false,
      "normalized": false,
      "special": true
    },
    {
      "id": 24,
      "content": "<|AA.O|>",
      "single_word": false,
      "lstrip": false,
      "rstrip": false,
      "normalized": false,
      "special": true
    },
    {
      "id": 25,
      "content": "<|AA.P|>",
      "single_word": false,
      "lstrip": false,
      "rstrip": false,
      "normalized": false,
      "special": true
    },
    {
      "id": 26,
      "content": "<|AA.Q|>",
      "single_word": false,
      "lstrip": false,
      "rstrip": false,
      "normalized": false,
      "special": true
    },
    {
      "id": 27,
      "content": "<|AA.R|>",
      "single_word": false,
      "lstrip": false,
      "rstrip": false,
      "normalized": false,
      "special": true
    },
    {
      "id": 28,
      "content": "<|AA.S|>",
      "single_word": false,
      "lstrip": false,
      "rstrip": false,
      "normalized": false,
      "special": true
    },
    {
      "id": 29,
      "content": "<|AA.T|>",
      "single_word": false,
      "lstrip": false,
      "rstrip": false,
      "normalized": false,
      "special": true
    },
    {
      "id": 30,
      "content": "<|AA.U|>",
      "single_word": false,
      "lstrip": false,
      "rstrip": false,
      "normalized": false,
      "special": true
    },
    {
      "id": 31,
      "content": "<|AA.V|>",
      "single_word": false,
      "lstrip": false,
      "rstrip": false,
      "normalized": false,
      "special": true
    },
    {
      "id": 32,
      "content": "<|AA.W|>",
      "single_word": false,
      "lstrip": false,
      "rstrip": false,
      "normalized": false,
      "special": true
    },
    {
      "id": 33,
      "content": "<|AA.X|>",
      "single_word": false,
      "lstrip": false,
      "rstrip": false,
      "normalized": false,
      "special": true
    },
    {
      "id": 34,
      "content": "<|AA.Y|>",
      "single_word": false,
      "lstrip": false,
      "rstrip": false,
      "normalized": false,
      "special": true
    },
    {
      "id": 35,
      "content": "<|AA.Z|>",
      "single_word": false,
      "lstrip": false,
      "rstrip": false,
      "normalized": false,
      "special": true
    }
  ],
  "normalizer": {
    "type": "NFKC"
  },
  "pre_tokenizer": {
    "type": "ByteLevel",
    "add_prefix_space": false,
    "trim_offsets": true,
    "use_regex": true
  },
  "post_processor": null,
  "decoder": {
    "type": "ByteLevel",
    "add_prefix_space": true,
    "trim_offsets": true,
    "use_regex": true
  },
  "model": {
    "type": "BPE",
    "dropout": null,
    "unk_token": null,
    "continuing_subword_prefix": null,
    "end_of_word_suffix": null,
    "fuse_unk": false,
    "byte_fallback": false,
    "ignore_merges": false,
    "vocab": {
      "<|pad|>": 0,
      "<|system|>": 1,
      "<|user|>": 2,
      "<|assistant|>": 3,
      "<|tool|>": 4,
      "<|end_message|>": 5,
      "<|think|>": 6,
      "<|end_think|>": 7,
      "<|tool_call|>": 8,
      "<|end_tool_call|>": 9,
      "<|AA.A|>": 10,
      "<|AA.B|>": 11,
      "<|AA.C|>": 12,
      "<|AA.D|>": 13,
      "<|AA.E|>": 14,
      "<|AA.F|>": 15,
      "<|AA.G|>": 16,
      "<|AA.H|>": 17,
      "<|AA.I|>": 18,
      "<|AA.J|>": 19,
      "<|AA.K|>": 20,
      "<|AA.L|>": 21,
      "<|AA.M|>": 22,
      "<|AA.N|>": 23,
      "<|AA.O|>": 24,
      "<|AA.P|>": 25,
      "<|AA.Q|>": 26,
      "<|AA.R|>": 27,
      "<|AA.S|>": 28,
      "<|AA.T|>": 29,
      "<|AA.U|>": 30,
      "<|AA.V|>": 31,
      "<|AA.W|>": 32,
      "<|AA.X|>": 33,
      "<|AA.Y|>": 34,
      "<|AA.Z|>": 35,
      "!": 36,
      "\"": 37,
      "#": 38,
      "$": 39,
      "%": 40,
      "&": 41,
      "'": 42,
      "(": 43,
      ")": 44,
      "*": 45,
      "+": 46,
      ",": 47,
      "-": 48,
      ".": 49,
      "/": 50,
      "0": 51,
      "1": 52,
      "2": 53,
      "3": 54,
      "4": 55,
      "5": 56,
      "6": 57,
      "7": 58,
      "8": 59,
      "9": 60,
      ":": 61,
      ";": 62,
      "<": 63,
      "=": 64,
      ">": 65,
      "?": 66,
      "@": 67,
      "A": 68,
      "B": 69,
      "C": 70,
      "D": 71,
      "E": 72,
      "F": 73,
      "G": 74,
      "H": 75,
      "I": 76,
      "J": 77,
      "K": 78,
      "L": 79,
      "M": 80,
      "N": 81,
      "O": 82,
      "P": 83,
      "Q": 84,
      "R": 85,
      "S": 86,
      "T": 87,
      "U": 88,
      "V": 89,
      "W": 90,
      "X": 91,
      "Y": 92,
      "Z": 93,
      "[": 94,
      "\\": 95,
      "]": 96,
      "^": 97,
      "_": 98,
      "`": 99,
      "a": 100,
      "b": 101,
      "c": 102,
      "d": 103,
      "e": 104,
      "f": 105,
      "g": 106,
      "h": 107,
      "i": 108,
      "j": 109,
      "k": 110,
      "l": 111,
      "m": 112,
      "n": 113,
      "o": 114,
      "p": 115,
      "q": 116,
      "r": 117,
      "s": 118,
      "t": 119,
      "u": 120,
      "v": 121,
      "w": 122,
      "x": 123,
      "y": 124,
      "z": 125,
      "{": 126,
      "|": 127,
      "}": 128,
      "~": 129,
      "¡": 130,
      "¢": 131,
      "£": 132,
      "¤": 133,
      "¥": 134,
      "¦": 135,
      "§": 136,
      "¨": 137,
      "©": 138,
      "ª": 139,
      "«": 140,
      "¬": 141,
      "®": 142,
      "¯": 143,
      "°": 144,
      "±": 145,
      "²": 146,
      "³": 147,
      "´": 148,
      "µ": 149,
      "¶": 150,
      "·": 151,
      "¸": 152,
      "¹": 153,
      "º": 154,
      "»": 155,
      "¼": 156,
      "½": 157,
      "¾": 158,
      "¿": 159,
      "Â": 160,
      "Ã": 161,
      "Ä": 162,
      "Å": 163,
      "Æ": 164,
      "Ç": 165,
      "È": 166,
      "É": 167,
      "Ê": 168,
      "Ë": 169,
      "Ì": 170,
      "Í": 171,
      "Î": 172,
      "Ï": 173,
      "Ð": 174,
      "Ñ": 175,
      "Ò": 176,
      "Ó": 177,
      "Ô": 178,
      "Õ": 179,
      "Ö": 180,
      "×": 181,
      "Ø": 182,
      "Ù": 183,
      "Ú": 184,
      "Û": 185,
      "Ü": 186,
      "Ý": 187,
      "Þ": 188,
      "ß": 189,
      "à": 190,
      "á": 191,
      "â": 192,
      "ã": 193,
      "ä": 194,
      "å": 195,
      "æ": 196,
      "ç": 197,
      "è": 198,
      "é": 199,
      "ê": 200,
      "ë": 201,
      "ì": 202,
      "í": 203,
      "ï": 204,
      "ð": 205,
      "ó": 206,
      "Ĉ": 207,
      "ĉ": 208,
      "Ċ": 209,
      "č": 210,
      "Ġ": 211,
      "Ģ": 212,
      "ģ": 213,
      "Ĥ": 214,
      "ĥ": 215,
      "Ħ": 216,
      "ħ": 217,
      "Ĩ": 218,
      "ĩ": 219,
      "Ī": 220,
      "ī": 221,
      "Ĭ": 222,
      "ĭ": 223,
      "Į": 224,
      "į": 225,
      "İ": 226,
      "ı": 227,
      "Ĳ": 228,
      "ĳ": 229,
      "Ĵ": 230,
      "ĵ": 231,
      "Ķ": 232,
      "ķ": 233,
      "ĸ": 234,
      "Ĺ": 235,
      "ĺ": 236,
      "Ļ": 237,
      "ļ": 238,
      "Ľ": 239,
      "ľ": 240,
      "Ŀ": 241,
      "ŀ": 242,
      "Ł": 243,
      "ł": 244,
      "Ń": 245,
      "Ġt": 246,
      "in": 247,
      "Ġa": 248,
      "he": 249,
      "re": 250,
      "on": 251,
      "er": 252,
      "at": 253,
      "Ġs": 254,
      "Ġthe": 255,
      "Ġc": 256,
      "en": 257,
      "es": 258,
      "Ġo": 259,
      "ing": 260,
      "nd": 261,
      "it": 262,
      "Ġw": 263,
      "al": 264,
      "or": 265,
      "Ġp": 266,
      "is": 267,
      "ou": 268,
      "Ġf": 269,
      "an": 270,
      "ed": 271,
      "Ġb": 272,
      "Ġin": 273,
      "Ġand": 274,
      "ion": 275,
      "ar": 276,
      "ic": 277,
      "Ġm": 278,
      "Ġof": 279,
      "Ġd": 280,
      "Ġto": 281,
      "le": 282,
      "ro": 283,
      "ent": 284,
      "Ġe": 285,
      "ct": 286,
      "st": 287,
      "Ġh": 288,
      "Ġth": 289,
      "Ġre": 290,
      "om": 291,
      "il": 292,
      "ve": 293,
      "Ġl": 294,
      "as": 295,
      "et": 296,
      "ly": 297,
      "Ġn": 298,
      "ation": 299,
      "se": 300,
      "ol": 301,
      "im": 302,
      "Ġg": 303,
      "ra": 304,
      "ur": 305,
      "ce": 306,
      "id": 307,
      "ĠT": 308,
      "ow": 309,
      "ig": 310,
      "Ġu": 311,
      "ch": 312,
      "ut": 313,
      "Ġy": 314,
      "Ġbe": 315,
      "Ġst": 316,
      "ot": 317,
      "ver": 318,
      "Ġis": 319,
      "ĠA": 320,
      "Ġfor": 321,
      "ul": 322,
      "ir": 323,
      "ĠS": 324,
      "Ġcon": 325,
      "Ġyou": 326,
      "Ġon": 327,
      "el": 328,
      "âĢ": 329,
      "ith": 330,
      "ay": 331,
      "am": 332,
      "ĠC": 333,
      "ĠI": 334,
      "if": 335,
      "Ġpro": 336,
      "Ġthat": 337,
      "her": 338,
      "ers": 339,
      "Ġwith": 340,
      "Ġex": 341,
      "Ġas": 342,
      "ies": 343,
      "ad": 344,
      "ess": 345,
      "Ġor": 346,
      "ate": 347,
      "ment": 348,
      "Ġwh": 349,
      "Ġan": 350,
      "--": 351,
      "ag": 352,
      "od": 353,
      "ect": 354,
      "ist": 355,
      "Ġcom": 356,
      "Ġal": 357,
      "Ġit": 358,
      "ter": 359,
      "res": 360,
      "ab": 361,
      "ity": 362,
      "iv": 363,
      "Ġde": 364,
      "ive": 365,
      "us": 366,
      "th": 367,
      "Ġv": 368,
      "op": 369,
      "qu": 370,
      "ĠM": 371,
      "Ġare": 372,
      "Ġsu": 373,
      "Ġhe": 374,
      "ke": 375,
      "pp": 376,
      "ore": 377,
      "ĠP": 378,
      "em": 379,
      "ts": 380,
      "ĠB": 381,
      "ac": 382,
      "Ġwe": 383,
      "ill": 384,
      "and": 385,
      "ial": 386,
      "ĠThe": 387,
      "Ġ(": 388,
      "ain": 389,
      "igh": 390,
      "oc": 391,
      "Ġch": 392,
      "ĠW": 393,
      "Ġen": 394,
      "um": 395,
      "os": 396,
      "Ġle": 397,
      "ld": 398,
      "est": 399,
      "un": 400,
      "rou": 401,
      "ical": 402,
      "ure": 403,
      "ĠH": 404,
      "ions": 405,
      "ĠE": 406,
      "Ġcan": 407,
      "ud": 408,
      "Ġne": 409,
      "rom": 410,
      "nt": 411,
      "ant": 412,
      "Ġ1": 413,
      "pl": 414,
      "ri": 415,
      "ĠF": 416,
      "Ġse": 417,
      "ĠD": 418,
      "Ġby": 419,
      "og": 420,
      "ort": 421,
      "ap": 422,
      "ĠR": 423,
      "Ġint": 424,
      "gh": 425,
      "Ġat": 426,
      "Ġha": 427,
      "Ġr": 428,
      "Ġsh": 429,
      "Ġyour": 430,
      "Ġsp": 431,
      "Ġab": 432,
      "all": 433,
      "Ġim": 434,
      "out": 435,
      "Ġfrom": 436,
      "iz": 437,
      "'s": 438,
      "Ġwor": 439,
      "ine": 440,
      "ations": 441,
      "ere": 442,
      "Ġtheir": 443,
      "Ġus": 444,
      "art": 445,
      "Ġthis": 446,
      "ome": 447,
      "ge": 448,
      "ĠL": 449,
      "ust": 450,
      "our": 451,
      "ous": 452,
      "act": 453,
      "are": 454,
      "per": 455,
      "Ġpl": 456,
      "ight": 457,
      "âĢĻ": 458,
      "ard": 459,
      "Ġad": 460,
      "Ġcomp": 461,
      "----": 462,
      "ĠN": 463,
      "Ġcont": 464,
      "ĠG": 465,
      "ther": 466,
      "ast": 467,
      "Ġwhe": 468,
      "king": 469,
      "age": 470,
      "ff": 471,
      "ans": 472,
      "ance": 473,
      "Ġ2": 474,
      "ip": 475,
      "Ġres": 476,
      "end": 477,
      "Ġthey": 478,
      "ide": 479,
      "ell": 480,
      "du": 481,
      "ec": 482,
      "Ġhave": 483,
      "Ġdis": 484,
      "ĠO": 485,
      "Ġwas": 486,
      "pt": 487,
      "ost": 488,
      "ĠTh": 489,
      "ated": 490,
      "ĠâĢ": 491,
      "ould": 492,
      "ru": 493,
      "ib": 494,
      "ult": 495,
      "Ġinc": 496,
      "Ġnot": 497,
      "ong": 498,
      "ual": 499,
      "Ġk": 500,
      "able": 501,
      "cc": 502,
      "orm": 503,
      "ich": 504,
      "ks": 505,
      "Ġte": 506,
      "ep": 507,
      "ence": 508,
      "ary": 509,
      "Ġall": 510,
      "vel": 511,
      "ike": 512,
      "ign": 513,
      "Ġun": 514,
      "ces": 515,
      "Ġabout": 516,
      "Ġimp": 517,
      "ĠU": 518,
      "ind": 519,
      "reat": 520,
      "ents": 521,
      "Ġme": 522,
      "ie": 523,
      "ach": 524,
      "Ġwill": 525,
      "Ġj": 526,
      "Ġcl": 527,
      "nder": 528,
      "Ġapp": 529,
      "ood": 530,
      "ress": 531,
      "ction": 532,
      "ĠIn": 533,
      "av": 534,
      "ry": 535,
      "The": 536,
      "Ġdo": 537,
      "ear": 538,
      "rough": 539,
      "ire": 540,
      "ors": 541,
      "Ġar": 542,
      "Ġman": 543,
      "ĠJ": 544,
      "ile": 545,
      "Ġthese": 546,
      "Ġev": 547,
      "ition": 548,
      "oo": 549,
      "Ġinto": 550,
      "Ġother": 551,
      "Ġmore": 552,
      "ities": 553,
      "Ġlike": 554,
      "Ġwhich": 555,
      "ass": 556,
      "ice": 557,
      "ating": 558,
      "00": 559,
      "Ġem": 560,
      "Ġthem": 561,
      "ia": 562,
      "one": 563,
      "very": 564,
      "Ġcomm": 565,
      "form": 566,
      "Ġper": 567,
      "ci": 568,
      "ue": 569,
      "Ġpre": 570,
      "ime": 571,
      "Ġma": 572,
      "ory": 573,
      "Ġour": 574,
      "ild": 575,
      "ater": 576,
      "Ġhow": 577,
      "ens": 578,
      "so": 579,
      "olog": 580,
      "Ġhas": 581,
      "Ġunder": 582,
      "ose": 583,
      "ings": 584,
      "Ġout": 585,
      "now": 586,
      "ang": 587,
      "Ġtra": 588,
      "ments": 589,
      "Ġso": 590,
      "ific": 591,
      "ĠĠ": 592,
      "Ġup": 593,
      "ace": 594,
      "rit": 595,
      "Ġind": 596,
      "Ġpe": 597,
      "iff": 598,
      "Ġbet": 599,
      "Ġqu": 600,
      "ack": 601,
      "Ġbut": 602,
      "Ġ\"": 603,
      "Ġfe": 604,
      "Ġone": 605,
      "Ġsy": 606,
      "ber": 607,
      "Ġstud": 608,
      "arn": 609,
      "Ġro": 610,
      "ric": 611,
      "ious": 612,
      "**": 613,
      "Ġalso": 614,
      "Ġwhen": 615,
      "ord": 616,
      "Ġbec": 617,
      "ase": 618,
      "ound": 619,
      "Ġsome": 620,
      "Ġpart": 621,
      "Ġits": 622,
      "Ġwho": 623,
      "ful": 624,
      "ĠSt": 625,
      "Ġtr": 626,
      "Ġdiff": 627,
      "au": 628,
      "uring": 629,
      "ĠThis": 630,
      "ons": 631,
      "ish": 632,
      "Ġcons": 633,
      "ays": 634,
      "les": 635,
      "low": 636,
      "Ġthrough": 637,
      "Ġcol": 638,
      "ne": 639,
      "Ġhel": 640,
      "round": 641,
      "ak": 642,
      "we": 643,
      "ures": 644,
      "lect": 645,
      "ph": 646,
      "Ġsuch": 647,
      "Ġhelp": 648,
      "Ġrec": 649,
      "ame": 650,
      "ount": 651,
      "ople": 652,
      "Ġtime": 653,
      "ĠCh": 654,
      "ite": 655,
      "Ġrel": 656,
      "ally": 657,
      "Ġinter": 658,
      "ates": 659,
      "Ġknow": 660,
      "Ġover": 661,
      "erv": 662,
      "ond": 663,
      "ics": 664,
      "ail": 665,
      "Ġwere": 666,
      "Ġacc": 667,
      "Ġdes": 668,
      "ough": 669,
      "ms": 670,
      "over": 671,
      "ree": 672,
      "--------": 673,
      "Ġact": 674,
      "Ġthere": 675,
      "ys": 676,
      ").": 677,
      "ract": 678,
      "ub": 679,
      "pect": 680,
      "âĢĿ": 681,
      "stand": 682,
      "Ġmay": 683,
      "ple": 684,
      "Ġag": 685,
      "Ġwhat": 686,
      "cess": 687,
      "alth": 688,
      "ative": 689,
      "ĠK": 690,
      "ove": 691,
      "Ġam": 692,
      "Ġpeople": 693,
      "ĠY": 694,
      "Ġeff": 695,
      "Ġexpl": 696,
      "ob": 697,
      "Ġhis": 698,
      "Ġlearn": 699,
      "eth": 700,
      "row": 701,
      "ĠIt": 702,
      "Ġincl": 703,
      "ll": 704,
      "vers": 705,
      "ility": 706,
      "Ġinv": 707,
      "lic": 708,
      "ular": 709,
      "ian": 710,
      "Ġspec": 711,
      "Ġra": 712,
      "ov": 713,
      "Ġnew": 714,
      "chn": 715,
      "Ġthan": 716,
      "velop": 717,
      "Ġdiffere": 718,
      "ting": 719,
      "stem": 720,
      "Ġneed": 721,
      "red": 722,
      "Ġprov": 723,
      "Ġreg": 724,
      "Ġsc": 725,
      "yp": 726,
      "ject": 727,
      "ced": 728,
      "Ġoff": 729,
      "ren": 730,
      "oth": 731,
      "ween": 732,
      "rib": 733,
      "als": 734,
      "Ġac": 735,
      "Ġrem": 736,
      "Ġpr": 737,
      "Ġuse": 738,
      "Ġexper": 739,
      "Ġinclud": 740,
      "Ġrep": 741,
      "Ġexam": 742,
      "Ġph": 743,
      "Ġinst": 744,
      "ential": 745,
      "Ġbetween": 746,
      "ĠâĢľ": 747,
      "Ġif": 748,
      "Ġ-": 749,
      "tain": 750,
      "hen": 751,
      "Ġgen": 752,
      "Ġ19": 753,
      "ĠV": 754,
      "sel": 755,
      "Ġdisc": 756,
      "Ġsa": 757,
      "ĠâĢĵ": 758,
      "Ġany": 759,
      "Ġwork": 760,
      "Ġdi": 761,
      "irst": 762,
      "te": 763,
      "ise": 764,
      "iqu": 765,
      "Ġass": 766,
      "..": 767,
      "ives": 768,
      "ook": 769,
      "ural": 770,
      "Ġevery": 771,
      "ark": 772,
      "Ġdec": 773,
      "Ġtw": 774,
      "Ġpers": 775,
      "Ġsoc": 776,
      "dition": 777,
      "Ġvar": 778,
      "ake": 779,
      "ational": 780,
      "Ġdevelop": 781,
      "get": 782,
      "ause": 783,
      "ower": 784,
      "ife": 785,
      "ool": 786,
      "Ġwhere": 787,
      "Ġ20": 788,
      "Ġher": 789,
      "In": 790,
      "Ġ3": 791,
      "Ġtechn": 792,
      "Ġbl": 793,
      "mer": 794,
      "ef": 795,
      "ased": 796,
      "Ġcommun": 797,
      "ues": 798,
      "Ġpos": 799,
      "xt": 800,
      "Ġtrans": 801,
      "ath": 802,
      "ten": 803,
      "ible": 804,
      "Ġhealth": 805,
      "old": 806,
      "Ġwould": 807,
      "hed": 808,
      "Ġworld": 809,
      "ness": 810,
      "Ġbeen": 811,
      "Ġsystem": 812,
      "Ġsur": 813,
      "Ġunderstand": 814,
      "oin": 815,
      "Ġyear": 816,
      "uc": 817,
      "Ġsign": 818,
      "tern": 819,
      "hes": 820,
      "Ġwhile": 821,
      "Ġmod": 822,
      "Ġins": 823,
      "ss": 824,
      "ange": 825,
      "Ġprodu": 826,
      "its": 827,
      "ict": 828,
      "Ġob": 829,
      "ices": 830,
      "wn": 831,
      "Ġmany": 832,
      "pport": 833,
      "Ġdifferent": 834,
      "Ġcre": 835,
      "Ġinf": 836,
      "gan": 837,
      "),": 838,
      "ever": 839,
      "hip": 840,
      "'t": 841,
      "Ġcould": 842,
      "fter": 843,
      "Ġstr": 844,
      "ism": 845,
      "ily": 846,
      "Ġsm": 847,
      "Ġno": 848,
      "oy": 849,
      "Ġsim": 850,
      "iet": 851,
      "rop": 852,
      "Ġatt": 853,
      "ology": 854,
      "cy": 855,
      "ection": 856,
      "Ġmost": 857,
      "Ġhad": 858,
      "ward": 859,
      "Ġexp": 860,
      "Ġeven": 861,
      "Ġval": 862,
      "Ġgo": 863,
      "Ġused": 864,
      "ines": 865,
      "erg": 866,
      "Ġimport": 867,
      "Ġbu": 868,
      "ĠUn": 869,
      "ern": 870,
      "vent": 871,
      "ident": 872,
      "ata": 873,
      "Ġduring": 874,
      "ature": 875,
      "ivid": 876,
      "Ġtwo": 877,
      "erm": 878,
      "own": 879,
      "Ġart": 880,
      "Ġref": 881,
      "Ġfl": 882,
      "ng": 883,
      "ution": 884,
      "Ġsub": 885,
      "Ġpol": 886,
      "ize": 887,
      "Ġhum": 888,
      "cl": 889,
      "ists": 890,
      "urn": 891,
      "Ġfirst": 892,
      "Ġpres": 893,
      "Ġusing": 894,
      "ered": 895,
      "Ġwithin": 896,
      "ĠWh": 897,
      "fore": 898,
      "ram": 899,
      "Ġke": 900,
      "Ġcall": 901,
      "Ġhist": 902,
      "Ġjust": 903,
      "ble": 904,
      "ically": 905,
      "arch": 906,
      "iss": 907,
      "Ġcomple": 908,
      "ink": 909,
      "Ġsk": 910,
      "eg": 911,
      "Ġchild": 912,
      "Ġwell": 913,
      "ruct": 914,
      "Ġhigh": 915,
      "Ġeach": 916,
      "Ġexperi": 917,
      "Ġmed": 918,
      "ering": 919,
      "Ġprocess": 920,
      "Ġfun": 921,
      "Ġtyp": 922,
      "Ġcult": 923,
      "Ġthose": 924,
      "ized": 925,
      "Ġonly": 926,
      "other": 927,
      "Ġform": 928,
      "eng": 929,
      "ew": 930,
      "Ġpat": 931,
      "Ġpract": 932,
      "Ġsom": 933,
      "Ġlead": 934,
      "olv": 935,
      "ade": 936,
      "Ġnum": 937,
      "arm": 938,
      "Ġget": 939,
      "ĠAs": 940,
      "ick": 941,
      "iron": 942,
      "Ġmy": 943,
      "ĠHow": 944,
      "Ġdet": 945,
      "ages": 946,
      "Ġinform": 947,
      "Ġset": 948,
      "Ġsee": 949,
      "Ġfam": 950,
      "ividual": 951,
      "Ġed": 952,
      "Ġfol": 953,
      "led": 954,
      "ants": 955,
      "ied": 956,
      "Ġmight": 957,
      "Ġrese": 958,
      "Ġgra": 959,
      "aw": 960,
      "Ġlife": 961,
      "Ġadd": 962,
      "ĠFor": 963,
      "ands": 964,
      "Ġeffect": 965,
      "Ġwater": 966,
      "cing": 967,
      "ality": 968,
      "imes": 969,
      "cept": 970,
      "Ġent": 971,
      "ft": 972,
      "Ġboth": 973,
      "Ġpartic": 974,
      "ĠCon": 975,
      "Ġindividual": 976,
      "Ġread": 977,
      "uch": 978,
      "Ġshe": 979,
      "ĠBy": 980,
      "Ġloc": 981,
      "Ġrequ": 982,
      "ĠWe": 983,
      "Ġgrow": 984,
      "Ġperson": 985,
      "Ġdist": 986,
      "chool": 987,
      "ps": 988,
      "Ġmake": 989,
      "Ġway": 990,
      "ĠHe": 991,
      "Ġeng": 992,
      "ĠThey": 993,
      "ning": 994,
      "Ġaround": 995,
      "Ġincre": 996,
      "Ġown": 997,
      "viron": 998,
      "Ġfind": 999,
      "Ġdata": 1000,
      "ences": 1001,
      "Ġshould": 1002,
      "ĠThese": 1003,
      "Ġext": 1004,
      "con": 1005,
      "Ġmain": 1006,
      "Ġback": 1007,
      "iew": 1008,
      "ins": 1009,
      "ited": 1010,
      "por": 1011,
      "Ġcreat": 1012,
      "arly": 1013,
      "Ġchar": 1014,
      "Ġlet": 1015,
      "Ġ4": 1016,
      "ron": 1017,
      "ional": 1018,
      "Ġaut": 1019,
      "Ġgener": 1020,
      "Ġallow": 1021,
      "Ġcare": 1022,
      "Ġresp": 1023,
      "ories": 1024,
      "Ġprog": 1025,
      "ds": 1026,
      "ining": 1027,
      "Ġsec": 1028,
      "Ġplay": 1029,
      "Ġthen": 1030,
      "ross": 1031,
      "Ġcar": 1032,
      "ights": 1033,
      "Ġlong": 1034,
      "Ġcent": 1035,
      "Ġfollow": 1036,
      "Ġgl": 1037,
      "Ġfact": 1038,
      "Ġdesign": 1039,
      "Ġpower": 1040,
      "Ġcur": 1041,
      "Ġcap": 1042,
      "Ġfound": 1043,
      "Ġ201": 1044,
      "Ġcount": 1045,
      "meric": 1046,
      "ient": 1047,
      "ted": 1048,
      "Ġbecause": 1049,
      "ually": 1050,
      "gg": 1051,
      "ĠCom": 1052,
      "ather": 1053,
      "ĠAl": 1054,
      "uss": 1055,
      "Ġco": 1056,
      "itions": 1057,
      "Ġafter": 1058,
      "Ġvis": 1059,
      "Ġbeing": 1060,
      "Ġchall": 1061,
      "Ġbefore": 1062,
      "Ġimportant": 1063,
      "Ġprovid": 1064,
      "aking": 1065,
      "Ġ5": 1066,
      "Th": 1067,
      "Ġadv": 1068,
      "Ġyears": 1069,
      "Ġvarious": 1070,
      "Ġoften": 1071,
      "Ġexample": 1072,
      "Ġconsid": 1073,
      "iving": 1074,
      "self": 1075,
      "ital": 1076,
      "cial": 1077,
      "ork": 1078,
      "Ġpar": 1079,
      "Ġpot": 1080,
      "Ġcalled": 1081,
      "Ġgu": 1082,
      "Ġess": 1083,
      "Ġdoes": 1084,
      "ases": 1085,
      "Ġlit": 1086,
      "ody": 1087,
      "ave": 1088,
      "Ġconn": 1089,
      "Ġstudents": 1090,
      "Ġequ": 1091,
      "Ġcontin": 1092,
      "Ġbr": 1093,
      "oring": 1094,
      "Ġsignific": 1095,
      "Ġdef": 1096,
      "Ġsol": 1097,
      "Ġbel": 1098,
      "Ġwrit": 1099,
      "Ġconf": 1100,
      "ead": 1101,
      "Ġprot": 1102,
      "ĠAn": 1103,
      "ĠAmeric": 1104,
      "Ġserv": 1105,
      "Ġorgan": 1106,
      "Ġmin": 1107,
      "Ġenviron": 1108,
      "Wh": 1109,
      "ĠPro": 1110,
      "ization": 1111,
      "Ġprom": 1112,
      "Ġdep": 1113,
      "Ġdel": 1114,
      "oun": 1115,
      "ivity": 1116,
      "Ġgrou": 1117,
      "imate": 1118,
      "Ġpop": 1119,
      "ute": 1120,
      "Ġsci": 1121,
      "Ġident": 1122,
      "Ġinformation": 1123,
      "riend": 1124,
      "Ġmem": 1125,
      "Ġfeel": 1126,
      "Ġtoo": 1127,
      "com": 1128,
      "ck": 1129,
      "ared": 1130,
      "Ġstudy": 1131,
      "Ġlearning": 1132,
      "ateg": 1133,
      "ique": 1134,
      "Ġfood": 1135,
      "ĠAd": 1136,
      "Ġdown": 1137,
      "Ġmat": 1138,
      "ability": 1139,
      "day": 1140,
      "ĠYou": 1141,
      "Ġlar": 1142,
      "##": 1143,
      "Ġshow": 1144,
      "Ġche": 1145,
      "Ġens": 1146,
      "tle": 1147,
      "Ġhuman": 1148,
      "Ġav": 1149,
      "Ġbeh": 1150,
      "ex": 1151,
      "Ġstart": 1152,
      "Ġend": 1153,
      "ets": 1154,
      "Ġcor": 1155,
      "Ġbuild": 1156,
      "inal": 1157,
      "Ġthough": 1158,
      "Ġclass": 1159,
      "ources": 1160,
      "rodu": 1161,
      "itive": 1162,
      "iel": 1163,
      "Ġreal": 1164,
      "Ġday": 1165,
      "Ġmuch": 1166,
      "ĠEx": 1167,
      "ier": 1168,
      "nce": 1169,
      "Ġagain": 1170,
      "Ġmon": 1171,
      "Ġschool": 1172,
      "Ġmade": 1173,
      "ars": 1174,
      "Ġgreat": 1175,
      "Ġpub": 1176,
      "Ġprof": 1177,
      "ethod": 1178,
      "ify": 1179,
      "Ġlevel": 1180,
      "Ġquest": 1181,
      "iety": 1182,
      "Ġanal": 1183,
      "ty": 1184,
      "----------------": 1185,
      "read": 1186,
      "Ġless": 1187,
      "Ġsupport": 1188,
      "Ġsocial": 1189,
      "air": 1190,
      "any": 1191,
      "iness": 1192,
      "ves": 1193,
      "Ġtake": 1194,
      "Ġsmall": 1195,
      "ples": 1196,
      "Ġop": 1197,
      "Ġredu": 1198,
      "Ġconc": 1199,
      "Ġappro": 1200,
      "io": 1201,
      "angu": 1202,
      "Ġposs": 1203,
      "Ġcreate": 1204,
      "Ġdem": 1205,
      "Ġproble": 1206,
      "Ġaff": 1207,
      "ination": 1208,
      "Ġimpro": 1209,
      ".,": 1210,
      "Ġeduc": 1211,
      "ale": 1212,
      "esp": 1213,
      "Ġiss": 1214,
      "less": 1215,
      "ocus": 1216,
      "aterial": 1217,
      "ething": 1218,
      "raph": 1219,
      "Ġunderstanding": 1220,
      "Ġaw": 1221,
      "ills": 1222,
      "ling": 1223,
      "ances": 1224,
      "ving": 1225,
      "Ġincluding": 1226,
      "Ġcontro": 1227,
      "ix": 1228,
      "Ġfriend": 1229,
      "erest": 1230,
      "Ġconst": 1231,
      "Ġbetter": 1232,
      "Ġgood": 1233,
      "Ġplan": 1234,
      "und": 1235,
      "overn": 1236,
      "ency": 1237,
      "Ġtoget": 1238,
      "Ġtogether": 1239,
      "ĠInd": 1240,
      "agine": 1241,
      "Ġfac": 1242,
      "Ġresearch": 1243,
      "``": 1244,
      "line": 1245,
      "acter": 1246,
      "Ġide": 1247,
      "ven": 1248,
      "ĠĠĠĠ": 1249,
      "Ġsomething": 1250,
      "Ġtreat": 1251,
      "Ġ200": 1252,
      "Ġcle": 1253,
      "ergy": 1254,
      "Ġexplore": 1255,
      "Ġothers": 1256,
      "omen": 1257,
      "Ġvery": 1258,
      "Ġchalleng": 1259,
      "ember": 1260,
      "Ġamong": 1261,
      "âĢĶ": 1262,
      "Ġenvironment": 1263,
      "Ġmethod": 1264,
      "orts": 1265,
      "Ġsignificant": 1266,
      "Ġpotential": 1267,
      "apter": 1268,
      "ĠIf": 1269,
      "ivers": 1270,
      "ĠSp": 1271,
      "ertain": 1272,
      "Ġcomplex": 1273,
      "ourse": 1274,
      "elf": 1275,
      "Ġchildren": 1276,
      "Ġser": 1277,
      "Ġris": 1278,
      "ently": 1279,
      "Ġwant": 1280,
      "Ġconnect": 1281,
      "ired": 1282,
      "Ġmus": 1283,
      "ĠAr": 1284,
      "ined": 1285,
      "ĠBut": 1286,
      "Ġright": 1287,
      "Ġmean": 1288,
      "ccess": 1289,
      "Ġest": 1290,
      "Ġdue": 1291,
      "wards": 1292,
      "izing": 1293,
      "usion": 1294,
      "Ġdid": 1295,
      "ĠHowever": 1296,
      "Ġ=": 1297,
      "Ġinvolv": 1298,
      "ax": 1299,
      "rent": 1300,
      "ental": 1301,
      "Ġnow": 1302,
      "ince": 1303,
      "lu": 1304,
      "Ġcrit": 1305,
      ".\"": 1306,
      "els": 1307,
      "par": 1308,
      "Ġsaf": 1309,
      "Ġmaterial": 1310,
      "Ġfunction": 1311,
      "Ġca": 1312,
      "Ġmust": 1313,
      "Ġ6": 1314,
      "be": 1315,
      "ogn": 1316,
      "Ġfocus": 1317,
      "Ġenc": 1318,
      "urther": 1319,
      "hers": 1320,
      "ral": 1321,
      "Ġben": 1322,
      "Ġpoin": 1323,
      "Ġ**": 1324,
      "Ġhapp": 1325,
      "Ġpo": 1326,
      "Ġanother": 1327,
      "Ġrepres": 1328,
      "up": 1329,
      "ological": 1330,
      "Ġperform": 1331,
      "Ġbody": 1332,
      "Ġhistory": 1333,
      "ditional": 1334,
      "ries": 1335,
      "Ġlangu": 1336,
      "ulation": 1337,
      "Ġcommon": 1338,
      "Ġinterest": 1339,
      "ock": 1340,
      "Ġele": 1341,
      "20": 1342,
      "Ġchange": 1343,
      "Ġmet": 1344,
      "Ġopt": 1345,
      "Ġsame": 1346,
      "oci": 1347,
      "ĠAnd": 1348,
      "Ġbecome": 1349,
      "Ġbelie": 1350,
      "ains": 1351,
      "Ġelect": 1352,
      "Ġchang": 1353,
      "ration": 1354,
      "Ġhand": 1355,
      "bers": 1356,
      "Ġknown": 1357,
      "irect": 1358,
      "Ġpur": 1359,
      "Ġessential": 1360,
      "ĠRe": 1361,
      "Ġmult": 1362,
      "ished": 1363,
      "Ġwithout": 1364,
      "Ġpass": 1365,
      "verse": 1366,
      "ense": 1367,
      "iven": 1368,
      "Ġcontrib": 1369,
      "oss": 1370,
      "...": 1371,
      "the": 1372,
      "Ġocc": 1373,
      "rain": 1374,
      "Ġkeep": 1375,
      "ention": 1376,
      "ĠIm": 1377,
      "lish": 1378,
      "ah": 1379,
      "land": 1380,
      "Ġdevelopment": 1381,
      "ication": 1382,
      "Ġphys": 1383,
      "rap": 1384,
      "Ġmaking": 1385,
      "Ġbus": 1386,
      "Ġacross": 1387,
      "Ġthings": 1388,
      "Ġshap": 1389,
      "agement": 1390,
      "aging": 1391,
      "Ġbased": 1392,
      "Ġsit": 1393,
      "ways": 1394,
      "St": 1395,
      "ner": 1396,
      "Ġ18": 1397,
      "Ġfin": 1398,
      "Ġsever": 1399,
      "Ġproduct": 1400,
      "Ġimm": 1401,
      "to": 1402,
      "Ġbo": 1403,
      "Ġhim": 1404,
      "Ġdiscuss": 1405,
      "ĠSo": 1406,
      "abor": 1407,
      "ior": 1408,
      "As": 1409,
      "Ġstate": 1410,
      "Ġcell": 1411,
      "Ġrelations": 1412,
      "ograph": 1413,
      "Ġleg": 1414,
      "Ġprin": 1415,
      "Ġimpact": 1416,
      "ditions": 1417,
      "Ġthree": 1418,
      "Ġsym": 1419,
      "Ġret": 1420,
      "Ġsaid": 1421,
      "ived": 1422,
      "ients": 1423,
      "ults": 1424,
      "der": 1425,
      "Ġ&": 1426,
      "Ġbre": 1427,
      "Ġunique": 1428,
      "conom": 1429,
      "oms": 1430,
      "Ġrole": 1431,
      "19": 1432,
      "ĠTo": 1433,
      "uture": 1434,
      "Ġve": 1435,
      "ash": 1436,
      "Ġdon": 1437,
      "ee": 1438,
      "ision": 1439,
      "ĠWhen": 1440,
      "Ġinclude": 1441,
      "Ġaccess": 1442,
      "ury": 1443,
      "az": 1444,
      "ids": 1445,
      "Ġtool": 1446,
      "Ġpresent": 1447,
      "iod": 1448,
      "Ġgovern": 1449,
      "Ġmove": 1450,
      "Ġenergy": 1451,
      "Ġnumber": 1452,
      "Ġprovide": 1453,
      "ilities": 1454,
      "Ġhome": 1455,
      "Ġtop": 1456,
      "Ġplace": 1457,
      "rat": 1458,
      "Ġalong": 1459,
      "Ġresult": 1460,
      "Ġmark": 1461,
      "Ġlook": 1462,
      "Ġ10": 1463,
      "Ġfamily": 1464,
      "__": 1465,
      "Ġwhy": 1466,
      "Ġseveral": 1467,
      "Ġspecific": 1468,
      "oura": 1469,
      "Ġ`": 1470,
      "Ġconsider": 1471,
      "ger": 1472,
      "Ġproject": 1473,
      "Ġstruct": 1474,
      "Ġmeans": 1475,
      "reen": 1476,
      "bs": 1477,
      "Ġagainst": 1478,
      "Ġopen": 1479,
      "ively": 1480,
      "Ġmar": 1481,
      "Ġsuccess": 1482,
      "ert": 1483,
      "Ġtest": 1484,
      "oh": 1485,
      "ording": 1486,
      "Ġproper": 1487,
      "Ġstill": 1488,
      "Ġbest": 1489,
      "Ġ'": 1490,
      "Ġdise": 1491,
      "ots": 1492,
      "kes": 1493,
      "ull": 1494,
      "Ġthink": 1495,
      "Ġdev": 1496,
      "Ġindividuals": 1497,
      "ĠSh": 1498,
      "Ġparticular": 1499,
      "Ġeas": 1500,
      "Ġstand": 1501,
      "Ġstrateg": 1502,
      "Ġsystems": 1503,
      "Ġspecial": 1504,
      "aring": 1505,
      "Ġbenef": 1506,
      "Ġtal": 1507,
      "Ġsupp": 1508,
      "Ġtem": 1509,
      "Ġanim": 1510,
      "utions": 1511,
      "Ġrespons": 1512,
      "Ġtre": 1513,
      "atural": 1514,
      "de": 1515,
      "Ġpublic": 1516,
      "ret": 1517,
      "Ġet": 1518,
      "Ġdr": 1519,
      "iting": 1520,
      "This": 1521,
      "Ġoper": 1522,
      "ploy": 1523,
      "ield": 1524,
      "Ġactiv": 1525,
      "Ġself": 1526,
      "ouse": 1527,
      "Ġcaus": 1528,
      "Ġmeas": 1529,
      "ĠEng": 1530,
      "Ġturn": 1531,
      "ĠThat": 1532,
      "agn": 1533,
      "ression": 1534,
      "asc": 1535,
      "ote": 1536,
      "ili": 1537,
      "Ġrelationship": 1538,
      ",\"": 1539,
      "ledge": 1540,
      "Ġinvest": 1541,
      "istic": 1542,
      "Ġlight": 1543,
      "ĠNew": 1544,
      "Ġ7": 1545,
      "Ġskills": 1546,
      "ĠIs": 1547,
      "ially": 1548,
      "iques": 1549,
      "ĠThere": 1550,
      "Ġdra": 1551,
      "ĠEn": 1552,
      ".âĢĿ": 1553,
      "irc": 1554,
      "Ġlaw": 1555,
      "Ġcomput": 1556,
      "cer": 1557,
      "Ġfuture": 1558,
      "Ġemb": 1559,
      "view": 1560,
      "pportun": 1561,
      "Ġcontrol": 1562,
      "ĠDe": 1563,
      "Ġbas": 1564,
      "Ġinflu": 1565,
      "Ġel": 1566,
      "Ġbusiness": 1567,
      "||": 1568,
      "Ġtowards": 1569,
      "Ġaffect": 1570,
      "Ġways": 1571,
      "Ġsl": 1572,
      "Ġever": 1573,
      "Ġlarge": 1574,
      "orn": 1575,
      "ved": 1576,
      "ending": 1577,
      "Ġauth": 1578,
      "ris": 1579,
      "port": 1580,
      "Ġcal": 1581,
      "ĠWith": 1582,
      "Ġter": 1583,
      "Ġcertain": 1584,
      "Ġbeg": 1585,
      "ason": 1586,
      "Ġtechnology": 1587,
      "Ġlocal": 1588,
      "Ġeconom": 1589,
      "Ġupon": 1590,
      "Ġmaintain": 1591,
      "ians": 1592,
      "Ġlanguage": 1593,
      "ilar": 1594,
      "ĠPl": 1595,
      "Ġrepresent": 1596,
      "Ġissues": 1597,
      "selves": 1598,
      "Ġhistor": 1599,
      "Ġcommunity": 1600,
      "asing": 1601,
      "Ġjour": 1602,
      "ium": 1603,
      "Ġassoci": 1604,
      "Ġobject": 1605,
      "What": 1606,
      "Ġpain": 1607,
      "ards": 1608,
      "etimes": 1609,
      "ats": 1610,
      "Ġbi": 1611,
      "ney": 1612,
      "Ġopportun": 1613,
      "Ġnon": 1614,
      "Ġunt": 1615,
      "work": 1616,
      "000": 1617,
      "Ġlist": 1618,
      "put": 1619,
      "Ġcomb": 1620,
      "Ġgroup": 1621,
      "Ġchallenges": 1622,
      "Ġcome": 1623,
      "Ġstep": 1624,
      "Ġexperience": 1625,
      "sy": 1626,
      "ran": 1627,
      "Ġtoday": 1628,
      "here": 1629,
      "Ġbehav": 1630,
      "Ġrest": 1631,
      "Ġworks": 1632,
      "Ġlim": 1633,
      "ĠWhat": 1634,
      "Ġapplic": 1635,
      "Ġrele": 1636,
      "Ġbro": 1637,
      "ooks": 1638,
      "ĠAmerican": 1639,
      "clusion": 1640,
      "Ġresources": 1641,
      "me": 1642,
      "Ġstory": 1643,
      "Ġdirect": 1644,
      "Ġprotect": 1645,
      "ĠĠĠ": 1646,
      "Ġcharacter": 1647,
      "iversity": 1648,
      "Ġfore": 1649,
      "Ġearly": 1650,
      "Ġstrong": 1651,
      "Ġthroughout": 1652,
      "aces": 1653,
      "Ġdesc": 1654,
      "Ġ8": 1655,
      "ext": 1656,
      "Ġaspect": 1657,
      "Ġant": 1658,
      "Ġtry": 1659,
      "osed": 1660,
      "eed": 1661,
      "Ġfollowing": 1662,
      "arth": 1663,
      "ĠAt": 1664,
      "Ġkey": 1665,
      "Ġhere": 1666,
      "olution": 1667,
      "ames": 1668,
      "Ġfew": 1669,
      "idence": 1670,
      "ource": 1671,
      "rist": 1672,
      "ĠRes": 1673,
      "Ġwomen": 1674,
      "Ġseem": 1675,
      "Ġfre": 1676,
      "Ġexperiences": 1677,
      "Ġfriends": 1678,
      "outh": 1679,
      "ĠOne": 1680,
      "Ġprofess": 1681,
      "Now": 1682,
      "ters": 1683,
      "ified": 1684,
      "Ġtak": 1685,
      "ibility": 1686,
      "Ġold": 1687,
      "Ġnecess": 1688,
      "ilit": 1689,
      "Ġorig": 1690,
      "Ġscient": 1691,
      "mat": 1692,
      "Ġpress": 1693,
      "Ġmind": 1694,
      "oid": 1695,
      "Ġintern": 1696,
      "Ġyoung": 1697,
      "Ġill": 1698,
      "Ġpersonal": 1699,
      "Ġ9": 1700,
      "10": 1701,
      "ysis": 1702,
      "app": 1703,
      "Ġcourse": 1704,
      "ption": 1705,
      "Ġaddress": 1706,
      "Ġarea": 1707,
      "ables": 1708,
      "ĠCl": 1709,
      "cent": 1710,
      "Ġemot": 1711,
      "iction": 1712,
      "Ġpolit": 1713,
      "Ġalways": 1714,
      "aut": 1715,
      "arc": 1716,
      "Ġglob": 1717,
      "Ġgrowth": 1718,
      "Ġperiod": 1719,
      "Ġareas": 1720,
      "Ġair": 1721,
      "Ġtype": 1722,
      "Ġliter": 1723,
      "ĠQ": 1724,
      "Ġavail": 1725,
      "Ġcost": 1726,
      "Ġsomeone": 1727,
      "idd": 1728,
      "Ġpolic": 1729,
      "amp": 1730,
      "ode": 1731,
      "ĠOr": 1732,
      "Ġknowledge": 1733,
      "Ġtimes": 1734,
      "Ġprevent": 1735,
      "Ġnatural": 1736,
      "ray": 1737,
      "Ġobs": 1738,
      "thing": 1739,
      "Ġconcern": 1740,
      "rate": 1741,
      "Ġeducation": 1742,
      "Ġtechniques": 1743,
      "Ġsimilar": 1744,
      "Ġrisk": 1745,
      "Ġstories": 1746,
      "Ġmodern": 1747,
      "Ġimprove": 1748,
      "Ġnet": 1749,
      "Ġuntil": 1750,
      "Ġ0": 1751,
      "nderstand": 1752,
      "Ġdig": 1753,
      "Ġinit": 1754,
      "yn": 1755,
      "ug": 1756,
      "Ġtypes": 1757,
      "Ġworking": 1758,
      "Ġprogram": 1759,
      "Ġhelps": 1760,
      "Ġquestions": 1761,
      "side": 1762,
      "ton": 1763,
      "oph": 1764,
      "acy": 1765,
      "Ġeveryone": 1766,
      "Ġdeep": 1767,
      "Ġsince": 1768,
      "Ġcommunities": 1769,
      "Ġindust": 1770,
      "iple": 1771,
      "chie": 1772,
      "Ġexist": 1773,
      "atures": 1774,
      "Ġcoll": 1775,
      "Ġ$": 1776,
      "Ġcollect": 1777,
      "Ġpast": 1778,
      "urop": 1779,
      "Ġpossible": 1780,
      "yth": 1781,
      "ĠCan": 1782,
      "ately": 1783,
      "ole": 1784,
      "ĠTe": 1785,
      "Ġpattern": 1786,
      "ires": 1787,
      "Ġfil": 1788,
      "Ġhard": 1789,
      "'re": 1790,
      "Ġdeterm": 1791,
      "Ġrecogn": 1792,
      "come": 1793,
      "ope": 1794,
      "ones": 1795,
      "Ġinn": 1796,
      "Ġview": 1797,
      "inating": 1798,
      "man": 1799,
      "Ġensure": 1800,
      "Ġwords": 1801,
      "Ġcru": 1802,
      "ges": 1803,
      "Ġconditions": 1804,
      "by": 1805,
      "lying": 1806,
      "Ġneeds": 1807,
      "Ġemploy": 1808,
      "Ġvalu": 1809,
      "erc": 1810,
      "omes": 1811,
      "ained": 1812,
      "Ġland": 1813,
      "orld": 1814,
      "Ġpost": 1815,
      "ean": 1816,
      "Ġcultural": 1817,
      "ooking": 1818,
      "Ġhaving": 1819,
      "fully": 1820,
      "Ġfost": 1821,
      "Ġcase": 1822,
      "ĠComm": 1823,
      "ission": 1824,
      "ĠCol": 1825,
      "inking": 1826,
      "Ġrespect": 1827,
      "Ġkind": 1828,
      "Ġlevels": 1829,
      "omm": 1830,
      "anced": 1831,
      "ours": 1832,
      "ibr": 1833,
      "Ġfurther": 1834,
      "ĠSome": 1835,
      "Ġestab": 1836,
      "Ġlow": 1837,
      "aps": 1838,
      "Ġoccur": 1839,
      "Ġbook": 1840,
      "To": 1841,
      "Ġer": 1842,
      "Ġey": 1843,
      "onst": 1844,
      "aper": 1845,
      "ĠThrough": 1846,
      "II": 1847,
      "lished": 1848,
      "ĠPh": 1849,
      "Ġactivities": 1850,
      "Section": 1851,
      "Ġregard": 1852,
      "Ġsound": 1853,
      "Ġmov": 1854,
      "How": 1855,
      "Ġmakes": 1856,
      "osp": 1857,
      "Ġmot": 1858,
      "Ġcirc": 1859,
      "Ġfactors": 1860,
      "Ġtru": 1861,
      "eral": 1862,
      "reci": 1863,
      "ream": 1864,
      "lement": 1865,
      "Ġrun": 1866,
      "Ġinteract": 1867,
      "Ġsens": 1868,
      "Ġsay": 1869,
      "Ġpractices": 1870,
      "Ġinteg": 1871,
      "aster": 1872,
      "Ġpractice": 1873,
      "Ġfree": 1874,
      "Ġspace": 1875,
      "Ġlast": 1876,
      "Ġplant": 1877,
      "Ġmill": 1878,
      "Ġhig": 1879,
      "porary": 1880,
      "Ġgr": 1881,
      "Ġprim": 1882,
      "icult": 1883,
      "jor": 1884,
      "Ġbegin": 1885,
      "inary": 1886,
      "plic": 1887,
      "for": 1888,
      "Ġvir": 1889,
      "ĠAf": 1890,
      "Ġsecond": 1891,
      "Ġrelig": 1892,
      "Ġachie": 1893,
      "Ġconsum": 1894,
      "Ġexploring": 1895,
      "illed": 1896,
      "Ġshare": 1897,
      "Ġchanges": 1898,
      "Ġnext": 1899,
      "Ġallows": 1900,
      "pts": 1901,
      "ank": 1902,
      "use": 1903,
      "Ġrece": 1904,
      "ended": 1905,
      "Ġnature": 1906,
      "Ġreport": 1907,
      "ides": 1908,
      "âĢĵ": 1909,
      "Ġdisease": 1910,
      "nces": 1911,
      "Ġflow": 1912,
      "cient": 1913,
      "ators": 1914,
      "Ġtools": 1915,
      "ules": 1916,
      "Ġblood": 1917,
      "apt": 1918,
      "Ġsugg": 1919,
      "Ġcountry": 1920,
      "sequ": 1921,
      "Ġavailable": 1922,
      "Ġteam": 1923,
      "Ġemp": 1924,
      "Ġsing": 1925,
      "Ġcurrent": 1926,
      "Ġcomes": 1927,
      "elling": 1928,
      "ym": 1929,
      "ĠEm": 1930,
      "Ġgovernment": 1931,
      "ring": 1932,
      "Ġmaterials": 1933,
      "gen": 1934,
      "Ġproblems": 1935,
      "ina": 1936,
      "ening": 1937,
      "ulations": 1938,
      "Ġcause": 1939,
      "orth": 1940,
      "Ġsw": 1941,
      "atch": 1942,
      "ests": 1943,
      "Ġassociated": 1944,
      "Ġenh": 1945,
      "Ġphysical": 1946,
      "ĠChrist": 1947,
      "sych": 1948,
      "Ġappreci": 1949,
      "Ġcritical": 1950,
      "Ġonline": 1951,
      "utes": 1952,
      "Ġvalue": 1953,
      "Ġparticip": 1954,
      "Ġbig": 1955,
      "Ġage": 1956,
      "lection": 1957,
      "Ġcreating": 1958,
      "Ġencoura": 1959,
      "Ġrequire": 1960,
      "Ġlives": 1961,
      "roduction": 1962,
      "Ġtraditional": 1963,
      "Ġsitu": 1964,
      "ĠInt": 1965,
      "ĠBe": 1966,
      "though": 1967,
      "Ġcontinu": 1968,
      "Ġlittle": 1969,
      ",âĢĿ": 1970,
      "aling": 1971,
      "aching": 1972,
      "ush": 1973,
      "Ġshort": 1974,
      "ths": 1975,
      "An": 1976,
      "fort": 1977,
      "ĠSe": 1978,
      "Ġmethods": 1979,
      "ĠEurop": 1980,
      "Ġvol": 1981,
      "ĠLet": 1982,
      "Ġaway": 1983,
      "ked": 1984,
      "Ġhead": 1985,
      "atic": 1986,
      "Ġable": 1987,
      "icient": 1988,
      "nderstanding": 1989,
      "Ġgroups": 1990,
      "joy": 1991,
      "Ġorder": 1992,
      "sw": 1993,
      "It": 1994,
      "face": 1995,
      "ane": 1996,
      "Ġpoint": 1997,
      "Ġsociety": 1998,
      "Ġhistorical": 1999,
      "Ġunit": 2000,
      "Ġmodel": 2001,
      "Ġlay": 2002,
      "aches": 2003,
      "rim": 2004,
      "Ġfar": 2005,
      "aries": 2006,
      "Ġwhether": 2007,
      "Ġpred": 2008,
      "Ġtreatment": 2009,
      "ĠUnited": 2010,
      "cap": 2011,
      "val": 2012,
      "Ġcrucial": 2013,
      "Ġvaluable": 2014,
      "ĠâĢĺ": 2015,
      "Ġculture": 2016,
      "icle": 2017,
      "Ġmusic": 2018,
      "icro": 2019,
      "etic": 2020,
      "ging": 2021,
      "Ġhy": 2022,
      "ored": 2023,
      "Ġemerg": 2024,
      "Ġwar": 2025,
      "```": 2026,
      "oney": 2027,
      "Ġliving": 2028,
      "ĠInst": 2029,
      "Ġproblem": 2030,
      "Ġfasc": 2031,
      "Ġname": 2032,
      "arl": 2033,
      "aren": 2034,
      "Ġline": 2035,
      "Ġpopular": 2036,
      "orpor": 2037,
      "Ġinsp": 2038,
      "duct": 2039,
      "Ġcust": 2040,
      "Ġspecies": 2041,
      "Ġinnov": 2042,
      "emporary": 2043,
      "Ġinstance": 2044,
      "Ġresults": 2045,
      "ender": 2046,
      "Ġscience": 2047,
      "oad": 2048,
      "avor": 2049,
      "reng": 2050,
      "ox": 2051,
      "let": 2052,
      "Ġheart": 2053,
      "ĠZ": 2054,
      "Ġcho": 2055,
      "of": 2056,
      "Ġ[": 2057,
      "Ġevents": 2058,
      "Ġlove": 2059,
      "pos": 2060,
      "Ġmanagement": 2061,
      "Ġyourself": 2062,
      "Ġinstead": 2063,
      "Ġmajor": 2064,
      "Ġbuilding": 2065,
      "Ġsometimes": 2066,
      "Ġcompon": 2067,
      "Ġground": 2068,
      "Ġput": 2069,
      "Ġgive": 2070,
      "aves": 2071,
      "Ġhold": 2072,
      ":**": 2073,
      "Ġmeaning": 2074,
      "Ġenough": 2075,
      "Ġremember": 2076,
      "Ġbir": 2077,
      "Ġsimple": 2078,
      "Ġbal": 2079,
      "ator": 2080,
      "Ġharm": 2081,
      "Ġneg": 2082,
      "Ġ199": 2083,
      "iver": 2084,
      "Ġtemper": 2085,
      "Ġglobal": 2086,
      "Ġaim": 2087,
      "Ġwee": 2088,
      "isc": 2089,
      "Ġdiverse": 2090,
      "Ġappear": 2091,
      "lt": 2092,
      "Ġcy": 2093,
      "ĠWhile": 2094,
      "Ġpositive": 2095,
      "Ġgoing": 2096,
      "cle": 2097,
      "Ġfund": 2098,
      "Im": 2099,
      "ĠAfric": 2100,
      "Ġclose": 2101,
      "ery": 2102,
      "Ġvalues": 2103,
      "pr": 2104,
      "Ġnear": 2105,
      "Ġauthor": 2106,
      "Ġelements": 2107,
      "ware": 2108,
      "light": 2109,
      "Ġreturn": 2110,
      "Ġguid": 2111,
      "ably": 2112,
      "Ġenjoy": 2113,
      "Ġcountries": 2114,
      "Ġopportunities": 2115,
      "Ġnorm": 2116,
      "Ġgiven": 2117,
      "Ġcells": 2118,
      "ĠAm": 2119,
      "ification": 2120,
      "Ġthemselves": 2121,
      "Ġstrategies": 2122,
      "sp": 2123,
      "Ġsure": 2124,
      "ĠSc": 2125,
      "Ġ.": 2126,
      "âĢľ": 2127,
      "ecially": 2128,
      "ruction": 2129,
      "ured": 2130,
      "Ġdifficult": 2131,
      "imately": 2132,
      "int": 2133,
      "Ġanaly": 2134,
      "Ġsust": 2135,
      "Step": 2136,
      "ĠOn": 2137,
      "Ġthought": 2138,
      "ised": 2139,
      "oose": 2140,
      "ik": 2141,
      "af": 2142,
      "ened": 2143,
      "Ġplants": 2144,
      "ĠGod": 2145,
      "Ġanalysis": 2146,
      "Ġsurround": 2147,
      "ety": 2148,
      "Ch": 2149,
      "Ġfour": 2150,
      "Ġz": 2151,
      "Ġesp": 2152,
      "Ġconcept": 2153,
      "Ġjourney": 2154,
      "ips": 2155,
      "Ġnar": 2156,
      "Ġquality": 2157,
      "Ġoffer": 2158,
      "Ġmen": 2159,
      "'ll": 2160,
      "ĠUniversity": 2161,
      "Ġwond": 2162,
      "Ġtext": 2163,
      "Ġmeet": 2164,
      "ĠStud": 2165,
      "Ġexpect": 2166,
      "Ġcommunication": 2167,
      "lex": 2168,
      "Ġteac": 2169,
      "Ġstreng": 2170,
      "Ġbeaut": 2171,
      "sc": 2172,
      "Con": 2173,
      "ument": 2174,
      "Ġsal": 2175,
      "ĠStates": 2176,
      "ipp": 2177,
      "avig": 2178,
      "urity": 2179,
      "Ġphot": 2180,
      "Ġdetail": 2181,
      "Ġquestion": 2182,
      "inist": 2183,
      "Ġenvironmental": 2184,
      "Ġmembers": 2185,
      "Ġrad": 2186,
      "One": 2187,
      "Ġvari": 2188,
      "Ġreflect": 2189,
      "Ġsum": 2190,
      "erous": 2191,
      "ann": 2192,
      "ried": 2193,
      "Ġdam": 2194,
      "Ġsuper": 2195,
      "Ġcontain": 2196,
      "ches": 2197,
      "):": 2198,
      "Ġlater": 2199,
      "ither": 2200,
      "ĠShe": 2201,
      "ĠMed": 2202,
      "###": 2203,
      "ĠApp": 2204,
      "Ġcompet": 2205,
      "overed": 2206,
      "une": 2207,
      "orks": 2208,
      "rated": 2209,
      "Ġnut": 2210,
      "ditionally": 2211,
      "Ġincreasing": 2212,
      "Ġtherap": 2213,
      "Al": 2214,
      "yond": 2215,
      "Ġfield": 2216,
      "Ġcapt": 2217,
      "oot": 2218,
      "ĠBl": 2219,
      "rams": 2220,
      "Ġyet": 2221,
      "Ġfull": 2222,
      "ios": 2223,
      "Ġresearc": 2224,
      "Ġnecessary": 2225,
      "Ġexc": 2226,
      "go": 2227,
      "Ġespecially": 2228,
      "atory": 2229,
      "Ġhigher": 2230,
      "Ġrather": 2231,
      "Ġstudies": 2232,
      "Ġ15": 2233,
      "Ġmultiple": 2234,
      "Ġprovides": 2235,
      "not": 2236,
      "Ġfig": 2237,
      "Ġmarket": 2238,
      "Ġchapter": 2239,
      "chan": 2240,
      "Ġdays": 2241,
      "Ġsubst": 2242,
      "Ġtransform": 2243,
      "ĠMore": 2244,
      "Ġpatterns": 2245,
      "tt": 2246,
      "Ġdraw": 2247,
      "**:": 2248,
      "ites": 2249,
      "Ġevent": 2250,
      "Ġlive": 2251,
      "Ġservices": 2252,
      "ising": 2253,
      "ĠAll": 2254,
      "Ġexpress": 2255,
      "We": 2256,
      "Ġbecame": 2257,
      "Ġdemonst": 2258,
      "Ġcomplete": 2259,
      "Ġdom": 2260,
      "Ġidentify": 2261,
      "Ġfascinating": 2262,
      "aste": 2263,
      "Ġeth": 2264,
      "izations": 2265,
      "Ġleft": 2266,
      "Ġcentury": 2267,
      "urb": 2268,
      "Ġperspect": 2269,
      "edi": 2270,
      "Ġquick": 2271,
      "fact": 2272,
      "Ġaspects": 2273,
      "Ġdescrib": 2274,
      "Ġobserv": 2275,
      "Ġanimals": 2276,
      "Ġarg": 2277,
      "Ġoverall": 2278,
      "Ġsafe": 2279,
      "ologies": 2280,
      "Ġcra": 2281,
      "Ġeffects": 2282,
      "Ġmach": 2283,
      "Ġusually": 2284,
      "vious": 2285,
      "ctions": 2286,
      "Ġaccording": 2287,
      "Ġcontinue": 2288,
      "ancial": 2289,
      "ged": 2290,
      "Ġengine": 2291,
      "ĠYour": 2292,
      "Ġpath": 2293,
      "Ġapproach": 2294,
      "ystem": 2295,
      "Ġlands": 2296,
      "Ġsoft": 2297,
      "Ġstat": 2298,
      "ival": 2299,
      "Ġbenefits": 2300,
      "Ġmedical": 2301,
      "Ġimportance": 2302,
      "Ġbrain": 2303,
      "Ġpromot": 2304,
      "Ġcollabor": 2305,
      "Ġnever": 2306,
      "Ġrelationships": 2307,
      "augh": 2308,
      "Ġrecord": 2309,
      "Ġside": 2310,
      "Ġbehavior": 2311,
      "Ġeffective": 2312,
      "Ġjoin": 2313,
      "irit": 2314,
      "fer": 2315,
      "Ġterm": 2316,
      "het": 2317,
      "Ġfrequ": 2318,
      "ython": 2319,
      "Ġrights": 2320,
      "ems": 2321,
      "ciples": 2322,
      "Ġonce": 2323,
      "Ġce": 2324,
      "ze": 2325,
      "Ġsustain": 2326,
      "Ġincrease": 2327,
      "Ġpaper": 2328,
      "wh": 2329,
      "olve": 2330,
      "Ġconsist": 2331,
      "Ġminim": 2332,
      "Ġarr": 2333,
      "ĠCont": 2334,
      "ĊĠĠĠ": 2335,
      "Ġattention": 2336,
      "Ġincorpor": 2337,
      "ĠUnderstanding": 2338,
      "Ġsubject": 2339,
      "arget": 2340,
      "atives": 2341,
      "Ġpolitical": 2342,
      "ene": 2343,
      "iol": 2344,
      "Ġstress": 2345,
      "Ġloss": 2346,
      "Ġrange": 2347,
      "aim": 2348,
      "Ġleading": 2349,
      "bol": 2350,
      "Ġcolor": 2351,
      "Ġaccount": 2352,
      "Ġ12": 2353,
      "mit": 2354,
      "Ġneeded": 2355,
      "Ġhealthy": 2356,
      "Ġmom": 2357,
      "Ġcontext": 2358,
      "Ġpatients": 2359,
      "Ġimplement": 2360,
      "hold": 2361,
      "Ġvers": 2362,
      "Ġproducts": 2363,
      "Ġtas": 2364,
      "Ġsun": 2365,
      "ĠWorld": 2366,
      "erve": 2367,
      "Ġexerc": 2368,
      "Ġcontemporary": 2369,
      "Ġsingle": 2370,
      "like": 2371,
      "ĠAfter": 2372,
      "Ġchem": 2373,
      "igen": 2374,
      "aving": 2375,
      "epend": 2376,
      "itud": 2377,
      "Ġsympt": 2378,
      "ores": 2379,
      "ming": 2380,
      "Ġansw": 2381,
      "Ġcut": 2382,
      "Ġcover": 2383,
      "rel": 2384,
      "Ġtaking": 2385,
      "fect": 2386,
      "Ġhowever": 2387,
      "ma": 2388,
      "isions": 2389,
      "Ġperformance": 2390,
      "Ġcity": 2391,
      "Ġmental": 2392,
      "ground": 2393,
      "Ġparts": 2394,
      "Ġpay": 2395,
      "care": 2396,
      "tal": 2397,
      "ĠTr": 2398,
      "enn": 2399,
      "Ġincreased": 2400,
      "aily": 2401,
      "Ġut": 2402,
      "ler": 2403,
      "istance": 2404,
      "lam": 2405,
      "ilt": 2406,
      "Ġreading": 2407,
      "Ġinsights": 2408,
      "Ġefforts": 2409,
      "There": 2410,
      "based": 2411,
      "Ġremain": 2412,
      "Ġbring": 2413,
      "ĠMay": 2414,
      "Ġindic": 2415,
      "more": 2416,
      "ulate": 2417,
      "Ġproduction": 2418,
      "iring": 2419,
      "Ġste": 2420,
      "arents": 2421,
      "Ġec": 2422,
      "ĠWar": 2423,
      "emic": 2424,
      "Ġaud": 2425,
      "ohn": 2426,
      "Ġbra": 2427,
      "Ġdeb": 2428,
      "pro": 2429,
      "ropri": 2430,
      "Ġspe": 2431,
      "Ġinvolves": 2432,
      "Ġclimate": 2433,
      "leb": 2434,
      "18": 2435,
      "Ġregular": 2436,
      "Ġpsych": 2437,
      "aged": 2438,
      "Ġarch": 2439,
      "Ġbehind": 2440,
      "Ġge": 2441,
      "ww": 2442,
      "12": 2443,
      "Ġcreated": 2444,
      "Ġmoney": 2445,
      "ĠCent": 2446,
      "Ġbeyond": 2447,
      "Ġones": 2448,
      "Ġtravel": 2449,
      "Ġsuggest": 2450,
      "Ġsuff": 2451,
      "Ġactivity": 2452,
      "ends": 2453,
      "ĠSu": 2454,
      "Ġvisual": 2455,
      "ership": 2456,
      "ancing": 2457,
      "oman": 2458,
      "If": 2459,
      "Ġsmo": 2460,
      "ĠCons": 2461,
      "Ġforms": 2462,
      "ĠMan": 2463,
      "enc": 2464,
      "Ġcontribute": 2465,
      "oday": 2466,
      "Ġwind": 2467,
      "Ġaltern": 2468,
      "oes": 2469,
      "Ġdoc": 2470,
      "Ġevidence": 2471,
      "Ġbroad": 2472,
      "Ġability": 2473,
      "ample": 2474,
      "ey": 2475,
      "Ġtell": 2476,
      "ĠUS": 2477,
      "Ġword": 2478,
      "Ġwriting": 2479,
      "ynam": 2480,
      "Ġentire": 2481,
      "Ġdigital": 2482,
      "amed": 2483,
      "Ġreduce": 2484,
      "Ġidea": 2485,
      "Ġresearchers": 2486,
      "Ġface": 2487,
      "ĠSim": 2488,
      "Ġcustom": 2489,
      "Ġextra": 2490,
      "Ġaction": 2491,
      "Ġstru": 2492,
      "Ġstay": 2493,
      "Ġsat": 2494,
      "Ġtraining": 2495,
      "Ġabs": 2496,
      "Ġmess": 2497,
      "Ġassess": 2498,
      "Ġnavig": 2499,
      "earch": 2500,
      "Ġparticularly": 2501,
      "Ġsurface": 2502,
      "Ġcr": 2503,
      "my": 2504,
      "rug": 2505,
      "Ġclear": 2506,
      "ils": 2507,
      "Ġprocesses": 2508,
      "Ġmor": 2509,
      "rict": 2510,
      "Ġconnections": 2511,
      "Ġhouse": 2512,
      "urs": 2513,
      "Ġreally": 2514,
      "Ġconce": 2515,
      "ivil": 2516,
      "Ġport": 2517,
      "istics": 2518,
      "ises": 2519,
      "Ġpowerful": 2520,
      "Ġtarget": 2521,
      "alu": 2522,
      "For": 2523,
      "vant": 2524,
      "Ġjob": 2525,
      "Ġlower": 2526,
      "ĠNational": 2527,
      "iles": 2528,
      "eper": 2529,
      "Ġflu": 2530,
      "Ġcomputer": 2531,
      "Ġsty": 2532,
      "ĠTra": 2533,
      "Ġaware": 2534,
      "Ġstarted": 2535,
      "So": 2536,
      "Ġclean": 2537,
      "Ġdiscover": 2538,
      "ĠChapter": 2539,
      "Ġbat": 2540,
      "Ġintrodu": 2541,
      "Ġlikely": 2542,
      "Ġdesigned": 2543,
      "erence": 2544,
      "Ġideas": 2545,
      "Ġmedia": 2546,
      "ici": 2547,
      "Ġbooks": 2548,
      "Ġshared": 2549,
      "Ġprop": 2550,
      "sh": 2551,
      "Ġoffers": 2552,
      "Ġcases": 2553,
      "ĠEnglish": 2554,
      "Ġpressure": 2555,
      "Ġcame": 2556,
      "Ġthinking": 2557,
      "ply": 2558,
      "Ġgain": 2559,
      "When": 2560,
      "Ġmechan": 2561,
      "ography": 2562,
      "ĠHealth": 2563,
      "Ġcancer": 2564,
      "Ġdeath": 2565,
      "hood": 2566,
      "Ġdoing": 2567,
      "Ġfinancial": 2568,
      "inally": 2569,
      "Ġabove": 2570,
      "Ġ17": 2571,
      "Ġseen": 2572,
      "ider": 2573,
      "icial": 2574,
      "Ġavoid": 2575,
      "Ġpopulation": 2576,
      "new": 2577,
      "ĠMar": 2578,
      "acc": 2579,
      "ivate": 2580,
      "Imagine": 2581,
      "ĠBrit": 2582,
      "Ġcoun": 2583,
      "leep": 2584,
      "ĠRem": 2585,
      "Ġbar": 2586,
      "ĠHist": 2587,
      "Ġpercent": 2588,
      "Ġred": 2589,
      "Ġsense": 2590,
      "mon": 2591,
      "Ġdive": 2592,
      "rast": 2593,
      "Ġeconomic": 2594,
      "ĠJust": 2595,
      "Ġbreak": 2596,
      "rect": 2597,
      "know": 2598,
      "phas": 2599,
      "astic": 2600,
      "Ġfall": 2601,
      "ung": 2602,
      "Ġregarding": 2603,
      "Ġprinciples": 2604,
      "nal": 2605,
      "hens": 2606,
      "Ġsources": 2607,
      "iment": 2608,
      "Ġoptim": 2609,
      "Ġvide": 2610,
      "ule": 2611,
      "ĠWell": 2612,
      "Ġsymptoms": 2613,
      "50": 2614,
      "Ġdaily": 2615,
      "Ġmass": 2616,
      "Ġfeatures": 2617,
      "Ġsafety": 2618,
      "Ġver": 2619,
      "enced": 2620,
      "Ġcool": 2621,
      "oved": 2622,
      "Ġselect": 2623,
      "acters": 2624,
      "pre": 2625,
      "Ġproviding": 2626,
      "Ġhab": 2627,
      "Ġbegan": 2628,
      "Ġsize": 2629,
      "olving": 2630,
      "Ex": 2631,
      "Ġeverything": 2632,
      "ifically": 2633,
      "ott": 2634,
      "dom": 2635,
      "Ġhumans": 2636,
      "Ġinvolved": 2637,
      "bon": 2638,
      "Ġinside": 2639,
      "acks": 2640,
      "oon": 2641,
      "hib": 2642,
      "ĠâĢĶ": 2643,
      "Ġwal": 2644,
      "pid": 2645,
      "Ġprogress": 2646,
      "Ġsent": 2647,
      "Ġdeeper": 2648,
      "Ġbelief": 2649,
      "Ġreve": 2650,
      "ided": 2651,
      "ĠAss": 2652,
      "rating": 2653,
      "elcome": 2654,
      "Ġmatter": 2655,
      "Ġshape": 2656,
      "Ġsex": 2657,
      "Ġdistrib": 2658,
      "ĠAmerica": 2659,
      "Ġmicro": 2660,
      "iddle": 2661,
      "Ġ16": 2662,
      "ster": 2663,
      "ĠEarth": 2664,
      "Ġrev": 2665,
      "Ġ|": 2666,
      "Ġconduct": 2667,
      "Ġnovel": 2668,
      "Ġwide": 2669,
      "Ġfavor": 2670,
      "Ġreason": 2671,
      "Ġskin": 2672,
      "ilies": 2673,
      "Ġexact": 2674,
      "Ġrequired": 2675,
      "Ġdoct": 2676,
      "Ġadm": 2677,
      "Ġpict": 2678,
      "osing": 2679,
      "ump": 2680,
      "Ġlab": 2681,
      "ĠAct": 2682,
      "Ġlif": 2683,
      "Ġfeed": 2684,
      "Ġcomponents": 2685,
      "Ġimagine": 2686,
      "Ġachieve": 2687,
      "rig": 2688,
      "alf": 2689,
      "Ġgreen": 2690,
      "Ġconvers": 2691,
      "Ġevalu": 2692,
      "ready": 2693,
      "ĠPre": 2694,
      "Ġterms": 2695,
      "Ġcalc": 2696,
      "elt": 2697,
      "Ġmedic": 2698,
      "Ġstructure": 2699,
      "By": 2700,
      "But": 2701,
      "Ġdecision": 2702,
      "ĠLe": 2703,
      "uth": 2704,
      "Ġgame": 2705,
      "Ġapplications": 2706,
      "Ġdynam": 2707,
      "arent": 2708,
      "Ġnational": 2709,
      "Ġeither": 2710,
      "ĠJohn": 2711,
      "Ġrequires": 2712,
      "Ġheav": 2713,
      "rid": 2714,
      "Ġwa": 2715,
      "Ġdeg": 2716,
      "ience": 2717,
      "ird": 2718,
      "most": 2719,
      "11": 2720,
      "Ġreact": 2721,
      "Ġlearned": 2722,
      "Ġsteps": 2723,
      "Ġsays": 2724,
      "ĠOver": 2725,
      "Ġwhole": 2726,
      "Ġcompany": 2727,
      "ously": 2728,
      "itation": 2729,
      "ĠAdditionally": 2730,
      "oration": 2731,
      "ĠAb": 2732,
      "Ġspirit": 2733,
      "Ġleast": 2734,
      "Ġprograms": 2735,
      "eration": 2736,
      "Ġrelated": 2737,
      "Ġcommit": 2738,
      "Ġ...": 2739,
      "ley": 2740,
      "Ġgreater": 2741,
      "just": 2742,
      "hing": 2743,
      "Ġadapt": 2744,
      "Ġsociet": 2745,
      "Ġtrue": 2746,
      "play": 2747,
      "eter": 2748,
      "ĠGu": 2749,
      "Ġcompan": 2750,
      "NA": 2751,
      "Ġstrugg": 2752,
      "igenous": 2753,
      "enge": 2754,
      "Ġcode": 2755,
      "ĠSoc": 2756,
      "Ġopp": 2757,
      "Ġgeneral": 2758,
      "Ġrecomm": 2759,
      "Ġactually": 2760,
      "Ġappropri": 2761,
      "oles": 2762,
      "Ġtakes": 2763,
      "Ġstates": 2764,
      "Ġdisord": 2765,
      "inct": 2766,
      "ops": 2767,
      "Ġalready": 2768,
      "Ġgrowing": 2769,
      "Ġspread": 2770,
      "Ġrepl": 2771,
      "Ġidentity": 2772,
      "Ġcharacters": 2773,
      "Ġbecomes": 2774,
      "ĠGerm": 2775,
      "Ġconcepts": 2776,
      "onse": 2777,
      "arily": 2778,
      "iation": 2779,
      "odies": 2780,
      "Ġsepar": 2781,
      "atform": 2782,
      "Ġdeveloping": 2783,
      "Ġparents": 2784,
      "____": 2785,
      "Ġled": 2786,
      "isms": 2787,
      "med": 2788,
      "Ġweight": 2789,
      "Ġrich": 2790,
      "Ġfail": 2791,
      "Ġprote": 2792,
      "Ġconflic": 2793,
      "ĠDr": 2794,
      "icles": 2795,
      "Ġinfluence": 2796,
      "overy": 2797,
      "iful": 2798,
      "ront": 2799,
      "Ġamount": 2800,
      "Ġsymbol": 2801,
      "Ġemphas": 2802,
      "Ġcompared": 2803,
      "Ġindustry": 2804,
      "Ġceleb": 2805,
      "Ġmeasure": 2806,
      "nds": 2807,
      "Ġsignificantly": 2808,
      "Ġdeveloped": 2809,
      "Ġsource": 2810,
      "Ġprovided": 2811,
      "Ġstudent": 2812,
      "Ġprob": 2813,
      "Ġlandscap": 2814,
      "Let": 2815,
      "way": 2816,
      "ched": 2817,
      "Ġinvestig": 2818,
      "Ġfram": 2819,
      "Ġdest": 2820,
      "oming": 2821,
      "ae": 2822,
      "ĠRep": 2823,
      "Ġrou": 2824,
      "ls": 2825,
      "Ġlog": 2826,
      "ese": 2827,
      "Ġadvent": 2828,
      "Ġoutside": 2829,
      "Ġsurrounding": 2830,
      "Ġmag": 2831,
      "ties": 2832,
      "Ġitself": 2833,
      "Ġfish": 2834,
      "Ġprep": 2835,
      "ĠRec": 2836,
      "Ġshows": 2837,
      "//": 2838,
      "Ġliterature": 2839,
      "Ġconsidered": 2840,
      "Ġtrust": 2841,
      "Ġmillion": 2842,
      "ĠGen": 2843,
      "aced": 2844,
      "hern": 2845,
      "Ġwhite": 2846,
      "izes": 2847,
      "Ġallowing": 2848,
      "Ġensuring": 2849,
      "ervation": 2850,
      "Ġpoints": 2851,
      "ying": 2852,
      "Ġfem": 2853,
      "Ġtook": 2854,
      "Ġsimply": 2855,
      "Ġancient": 2856,
      "Ġheat": 2857,
      "reg": 2858,
      "Ġisn": 2859,
      "Ġeasy": 2860,
      "Ġcontent": 2861,
      "Ġremains": 2862,
      "rior": 2863,
      "ĠFurther": 2864,
      "Ġcat": 2865,
      "ĠPe": 2866,
      "osis": 2867,
      "Ġdoesn": 2868,
      "Ġfa": 2869,
      "Ġrate": 2870,
      "Ġ*": 2871,
      "ĠNo": 2872,
      "ĠUs": 2873,
      "Ġcop": 2874,
      "Ġthreat": 2875,
      "vere": 2876,
      "Ġcompre": 2877,
      "Ġthr": 2878,
      "Ġimage": 2879,
      "Ġstructures": 2880,
      "ĠX": 2881,
      "ĠPol": 2882,
      "Ġwarm": 2883,
      "Ġaddition": 2884,
      "Ġprimary": 2885,
      "Ġprec": 2886,
      "ĠAcc": 2887,
      "Ġresponsible": 2888,
      "Ġtaken": 2889,
      "itable": 2890,
      "ĠIntern": 2891,
      "Ġreligious": 2892,
      "Ġmovement": 2893,
      "ales": 2894,
      "Ġoil": 2895,
      "ony": 2896,
      "ĠHis": 2897,
      "Ġhours": 2898,
      "hel": 2899,
      "Ġfarm": 2900,
      "ronic": 2901,
      "ĠFrom": 2902,
      "uted": 2903,
      "Ġlot": 2904,
      "rad": 2905,
      "Ġconcerns": 2906,
      "Ġnamed": 2907,
      "ĠSci": 2908,
      "akes": 2909,
      "Ġsurv": 2910,
      "Ġfamilies": 2911,
      "Ġschools": 2912,
      "Ġrecent": 2913,
      "Ġing": 2914,
      "ĠReg": 2915,
      "Ġann": 2916,
      "ĠToday": 2917,
      "Ġnumbers": 2918,
      "ĠNow": 2919,
      "Ġsharing": 2920,
      "Ġproduce": 2921,
      "Ġrob": 2922,
      "Ġregion": 2923,
      "umb": 2924,
      "Ġviol": 2925,
      "Ġprevious": 2926,
      "Ġuses": 2927,
      "15": 2928,
      "Ġrules": 2929,
      "Ġreview": 2930,
      "Ġwild": 2931,
      "Ġfive": 2932,
      "Ġcross": 2933,
      "uel": 2934,
      "Ġdrug": 2935,
      "ID": 2936,
      "ĠSouth": 2937,
      "Ġorganizations": 2938,
      "ĠImagine": 2939,
      "ript": 2940,
      "Ġtemperature": 2941,
      "Ġdone": 2942,
      "ison": 2943,
      "Ġfru": 2944,
      "pose": 2945,
      "ĠPer": 2946,
      "equ": 2947,
      "Ġslow": 2948,
      "Ã©": 2949,
      "Ġsett": 2950,
      "ultural": 2951,
      "Ġdiet": 2952,
      "Ġservice": 2953,
      "Ġbalance": 2954,
      "Ġkids": 2955,
      "duc": 2956,
      "Ġcondition": 2957,
      "Ġbelow": 2958,
      "Ġplatform": 2959,
      "Ġ14": 2960,
      "athy": 2961,
      "Ġestablish": 2962,
      "Ġdiv": 2963,
      "Ġult": 2964,
      "uck": 2965,
      "Ġtalk": 2966,
      "Ġbasic": 2967,
      "Ġnumerous": 2968,
      "rew": 2969,
      "Ġquickly": 2970,
      "Ġinstit": 2971,
      "iciency": 2972,
      "Ġweek": 2973,
      "16": 2974,
      "illing": 2975,
      "ĠCal": 2976,
      "Ġengaging": 2977,
      "Ġsuccessful": 2978,
      "ellow": 2979,
      "Ġconclusion": 2980,
      "ĠMany": 2981,
      "Ġlooking": 2982,
      "ura": 2983,
      "resh": 2984,
      "ilos": 2985,
      "Ġperfect": 2986,
      "Ġ+": 2987,
      "Ġposition": 2988,
      "urch": 2989,
      "ublic": 2990,
      "rown": 2991,
      "Ġbound": 2992,
      "efore": 2993,
      "itor": 2994,
      "Ġwritten": 2995,
      "Ġscientists": 2996,
      "iece": 2997,
      "Ġ30": 2998,
      "Ġla": 2999,
      "Ġbeautiful": 3000,
      "versity": 3001,
      "Ġindepend": 3002,
      "eds": 3003,
      "aly": 3004,
      "Ġchallenge": 3005,
      "ĠQu": 3006,
      "chol": 3007,
      "30": 3008,
      "Ġ/": 3009,
      "apan": 3010,
      "ai": 3011,
      "ume": 3012,
      "ĠArt": 3013,
      "itle": 3014,
      "ror": 3015,
      "Ġdiagn": 3016,
      "Ġwebs": 3017,
      "itect": 3018,
      "Ġblack": 3019,
      "Ġsleep": 3020,
      "Ġhealthcare": 3021,
      "Ġsolutions": 3022,
      "amples": 3023,
      "hemat": 3024,
      "ĠUnit": 3025,
      "Ġsoil": 3026,
      "ĠGe": 3027,
      "Ġserve": 3028,
      "Ġoriginal": 3029,
      "ER": 3030,
      "erson": 3031,
      "ĠPr": 3032,
      "Ġwin": 3033,
      "Ġresponse": 3034,
      "Ġvo": 3035,
      "term": 3036,
      "ift": 3037,
      "Ġ198": 3038,
      "rs": 3039,
      "ensive": 3040,
      "You": 3041,
      "Ġincludes": 3042,
      "Ġpolicy": 3043,
      "Ġelse": 3044,
      "Ġcit": 3045,
      "verage": 3046,
      "Ġdevices": 3047,
      "Ġnetwork": 3048,
      "Ġbelieve": 3049,
      "Ġx": 3050,
      "'ve": 3051,
      "://": 3052,
      "ĠResearch": 3053,
      "ension": 3054,
      "Ġsqu": 3055,
      "Ġtri": 3056,
      "reme": 3057,
      "ding": 3058,
      "Ġunc": 3059,
      "yl": 3060,
      "Ġearl": 3061,
      "Ġdog": 3062,
      "Ġclaim": 3063,
      "Ġful": 3064,
      "su": 3065,
      "Ġcultures": 3066,
      "Ġcheck": 3067,
      "Ġarticle": 3068,
      "Ġgender": 3069,
      "den": 3070,
      "ont": 3071,
      "uries": 3072,
      "Ġgas": 3073,
      "Ġetc": 3074,
      "Ġlibr": 3075,
      "Ġbreat": 3076,
      "ĠNorth": 3077,
      "Ġcannot": 3078,
      "inated": 3079,
      "ounts": 3080,
      "ufact": 3081,
      "Ġfilled": 3082,
      "Ġdifferences": 3083,
      "Ġdelve": 3084,
      "Ġsite": 3085,
      "bo": 3086,
      "ĠEach": 3087,
      "ades": 3088,
      "Ġchemical": 3089,
      "Ġap": 3090,
      "Ġstra": 3091,
      "Ġeffectively": 3092,
      "Ġmonths": 3093,
      "Ġpromote": 3094,
      "Ġadop": 3095,
      "Ġgetting": 3096,
      "ĊĠĠĠĠ": 3097,
      "Ġaccept": 3098,
      "Ġcontact": 3099,
      "Ġsecurity": 3100,
      "ĠCO": 3101,
      "wide": 3102,
      "Ġrefers": 3103,
      "Ġmix": 3104,
      "ellig": 3105,
      "ĠTechn": 3106,
      "vention": 3107,
      "rol": 3108,
      "ĠComp": 3109,
      "Ġlate": 3110,
      "Ġinj": 3111,
      "Ġscen": 3112,
      "oor": 3113,
      "Ġtown": 3114,
      "iam": 3115,
      "Ġprojects": 3116,
      "Ġlegal": 3117,
      "Ġappl": 3118,
      "ected": 3119,
      "Ġtheory": 3120,
      "Ġinternational": 3121,
      "Ġvisit": 3122,
      "14": 3123,
      "where": 3124,
      "Ġund": 3125,
      "Ġseries": 3126,
      "Ġheard": 3127,
      "17": 3128,
      "Ġri": 3129,
      "Ġcommunic": 3130,
      "?\"": 3131,
      "Ġded": 3132,
      "Ġdecisions": 3133,
      "ached": 3134,
      "ĠOnce": 3135,
      "Ġmodels": 3136,
      "Ġembra": 3137,
      "ields": 3138,
      "Ġlessons": 3139,
      "Ġnegative": 3140,
      "Ġtrying": 3141,
      "gar": 3142,
      "Ġtransport": 3143,
      "Ġfostering": 3144,
      "life": 3145,
      "rought": 3146,
      "Ġactions": 3147,
      "ĠFurthermore": 3148,
      "Ġpatient": 3149,
      "Ġreaders": 3150,
      "Ġscientific": 3151,
      "xim": 3152,
      "mb": 3153,
      "Ġefficient": 3154,
      "ĠSec": 3155,
      "Ġhands": 3156,
      "vey": 3157,
      "Ġissue": 3158,
      "ĠCanad": 3159,
      "Ġfair": 3160,
      "Ġveget": 3161,
      "Ġspecifically": 3162,
      "Ġstop": 3163,
      "ching": 3164,
      "iny": 3165,
      "eb": 3166,
      "comes": 3167,
      "encies": 3168,
      "Ġexactly": 3169,
      "Ġdesp": 3170,
      "Ġtechnologies": 3171,
      "Ġchallenging": 3172,
      "omet": 3173,
      "Ġdamage": 3174,
      "--------------------------------": 3175,
      "Ġsection": 3176,
      "ows": 3177,
      "Ġexamples": 3178,
      "Ġcolle": 3179,
      "estern": 3180,
      "Ġquant": 3181,
      "Ġmagn": 3182,
      "abilities": 3183,
      "head": 3184,
      "Ġimag": 3185,
      "Ġmaintaining": 3186,
      "ĠJapan": 3187,
      "Ġprofession": 3188,
      "Ġnarrat": 3189,
      "ĠDes": 3190,
      "Ġbuilt": 3191,
      "ĠMoreover": 3192,
      "Ġtax": 3193,
      "Ġappropriate": 3194,
      "elines": 3195,
      "Ġillust": 3196,
      "aff": 3197,
      "cell": 3198,
      "ĠAust": 3199,
      "Ġinterp": 3200,
      "ilitary": 3201,
      "Ġprofessional": 3202,
      "Ġlink": 3203,
      "Ġmis": 3204,
      "Ġcompanies": 3205,
      "Ġelectric": 3206,
      "iec": 3207,
      "Ġemotional": 3208,
      "13": 3209,
      "Ġinvolve": 3210,
      "Ġfeelings": 3211,
      "Ġcaused": 3212,
      "Ġvia": 3213,
      "ĠTheir": 3214,
      "Ġthing": 3215,
      "Ġlines": 3216,
      "Ġfit": 3217,
      "ĠOur": 3218,
      "Ġadditional": 3219,
      "Ġrefer": 3220,
      "Ġgard": 3221,
      "cious": 3222,
      "Ġutil": 3223,
      "Ġplays": 3224,
      "ĠMod": 3225,
      "Ġengage": 3226,
      "Ġsoftware": 3227,
      "Ġoptions": 3228,
      "Ġcorrect": 3229,
      "iliar": 3230,
      "ourt": 3231,
      "Ġdecided": 3232,
      "Ġeyes": 3233,
      "ĠEurope": 3234,
      "AS": 3235,
      "200": 3236,
      "Ġitems": 3237,
      "Ġfire": 3238,
      "Ġvital": 3239,
      "Ġsect": 3240,
      "Ġactive": 3241,
      "Ġhope": 3242,
      "ĠJew": 3243,
      "rial": 3244,
      "Ġlonger": 3245,
      "ĠPres": 3246,
      "Ġperspectives": 3247,
      "ighb": 3248,
      "Ġi": 3249,
      "plications": 3250,
      "Ġfat": 3251,
      "room": 3252,
      "Ġasked": 3253,
      "going": 3254,
      "osure": 3255,
      "Ġchoose": 3256,
      "Ġtotal": 3257,
      "Ġcauses": 3258,
      "Ġsn": 3259,
      "espite": 3260,
      "alls": 3261,
      "Ġwood": 3262,
      "Ġstandard": 3263,
      "Ġvideo": 3264,
      "ĠRemember": 3265,
      "Ġgoals": 3266,
      "Ġcamp": 3267,
      "uments": 3268,
      "Ġhalf": 3269,
      "Ġtypically": 3270,
      "oll": 3271,
      "IV": 3272,
      "hem": 3273,
      "ulated": 3274,
      "ĠAg": 3275,
      "Ġanimal": 3276,
      "Ġcomfort": 3277,
      "Ġ13": 3278,
      "Ġobjects": 3279,
      "mar": 3280,
      "Ġpan": 3281,
      "Int": 3282,
      "Ġhor": 3283,
      "works": 3284,
      "Ġimages": 3285,
      "Ġago": 3286,
      "Ġappreciate": 3287,
      "Ġbusinesses": 3288,
      "ĠCo": 3289,
      "Ġrelevant": 3290,
      "Ġconnection": 3291,
      "Ġdefin": 3292,
      "Ġapproaches": 3293,
      "ĠNot": 3294,
      "haps": 3295,
      "Ġpoll": 3296,
      "Ġpromoting": 3297,
      "ok": 3298,
      "Ġcivil": 3299,
      "Ġequip": 3300,
      "ĠDevelop": 3301,
      "erences": 3302,
      "clud": 3303,
      "ilarly": 3304,
      "Ġoutcomes": 3305,
      "Ġdiscovered": 3306,
      "ĠCar": 3307,
      "Ġgraph": 3308,
      "Ġalg": 3309,
      "Ġdifference": 3310,
      "Ġcore": 3311,
      "Ġdistinct": 3312,
      "Ġestablished": 3313,
      "ieces": 3314,
      "Ġteachers": 3315,
      "Ġwrite": 3316,
      "Ġeye": 3317,
      "Ġiniti": 3318,
      "Ġthoughts": 3319,
      "ĠMe": 3320,
      "itude": 3321,
      "Ġinstall": 3322,
      "Ġmanufact": 3323,
      "asons": 3324,
      "ĠChristian": 3325,
      "Ġpolicies": 3326,
      "gest": 3327,
      "Ġcontinued": 3328,
      "ĠIndia": 3329,
      "ulture": 3330,
      "Ġnarratives": 3331,
      "Ġusers": 3332,
      "ĠExpl": 3333,
      "oud": 3334,
      "ĠHer": 3335,
      "Ġspeed": 3336,
      "oint": 3337,
      "Ġrapid": 3338,
      "Ġreach": 3339,
      "Ġrates": 3340,
      "ĠDis": 3341,
      "Ġsil": 3342,
      "Ġcarbon": 3343,
      "Ġshaping": 3344,
      "Ġplaying": 3345,
      "Ġapplication": 3346,
      "Ġfavorite": 3347,
      "Ġpredict": 3348,
      "Ġeasily": 3349,
      "Have": 3350,
      "Ġlarger": 3351,
      "Ġplanning": 3352,
      "time": 3353,
      "Ġfunctions": 3354,
      "Ġguide": 3355,
      "Ġbackground": 3356,
      "Ġcateg": 3357,
      "ĠDep": 3358,
      "Ġnormal": 3359,
      "ES": 3360,
      "Ġask": 3361,
      "Ġnight": 3362,
      "Ġproced": 3363,
      "Ġang": 3364,
      "back": 3365,
      "Ġteach": 3366,
      "Ġtopics": 3367,
      "ĠAfrican": 3368,
      "Ġsearch": 3369,
      "Ġcolon": 3370,
      "Ġforest": 3371,
      "anks": 3372,
      "Ġep": 3373,
      "Ġfoods": 3374,
      "Ġrisks": 3375,
      "AR": 3376,
      "Ġadvant": 3377,
      "Ġconsequ": 3378,
      "Ġplaces": 3379,
      "AT": 3380,
      "ĠEuropean": 3381,
      "Ġteaching": 3382,
      "Ġforce": 3383,
      "Ġincred": 3384,
      "rench": 3385,
      "Ġartists": 3386,
      "Ġemotions": 3387,
      "Ġvirt": 3388,
      "mber": 3389,
      "zing": 3390,
      "Ġsoon": 3391,
      "Ġmemory": 3392,
      "ĠSchool": 3393,
      "Ġ100": 3394,
      "Ġconstruct": 3395,
      "Ġneighb": 3396,
      "Ġfresh": 3397,
      "Ġarchitect": 3398,
      "Ġbehavi": 3399,
      "Ġpack": 3400,
      "Ġmeasures": 3401,
      "ancy": 3402,
      "Ġmention": 3403,
      "Ġhyd": 3404,
      "Ġphilos": 3405,
      "Ġdocument": 3406,
      "ength": 3407,
      "Ġbur": 3408,
      "iber": 3409,
      "org": 3410,
      "ĠInter": 3411,
      "inate": 3412,
      "Ġgames": 3413,
      "irm": 3414,
      "ners": 3415,
      "Ġaccur": 3416,
      "Ġprior": 3417,
      "Ġexpand": 3418,
      "ĠAlthough": 3419,
      "Ġdemand": 3420,
      "onom": 3421,
      "Ġdial": 3422,
      "cipl": 3423,
      "iter": 3424,
      "ĠKe": 3425,
      "Ġcitiz": 3426,
      "being": 3427,
      "Ġgenerations": 3428,
      "ille": 3429,
      "issions": 3430,
      "ĠBritish": 3431,
      "urt": 3432,
      "ĠLear": 3433,
      "Ġtraditions": 3434,
      "Ġthemes": 3435,
      "Ġmachine": 3436,
      "Ġstar": 3437,
      "Ġacad": 3438,
      "ĠPart": 3439,
      "Ġawareness": 3440,
      "Ġpiece": 3441,
      "Ġquite": 3442,
      "Ġdespite": 3443,
      "rates": 3444,
      "Ġuser": 3445,
      "Ġanx": 3446,
      "Ġir": 3447,
      "ounds": 3448,
      "Ġadults": 3449,
      "Ġcosts": 3450,
      "orith": 3451,
      "Ġclin": 3452,
      "azing": 3453,
      "Ġlaws": 3454,
      "Ġstri": 3455,
      "Ġsignificance": 3456,
      "Ġpublished": 3457,
      "Ġroom": 3458,
      "Conclusion": 3459,
      "Ġalmost": 3460,
      "amb": 3461,
      "Ġagree": 3462,
      "Ġfear": 3463,
      "Ġearlier": 3464,
      "Ġautom": 3465,
      "ilience": 3466,
      "Ġalternative": 3467,
      "artment": 3468,
      "Ġlived": 3469,
      "Ġlat": 3470,
      "Ġhost": 3471,
      "At": 3472,
      "ana": 3473,
      "Ġrelative": 3474,
      "Ġenhance": 3475,
      "Ġsituation": 3476,
      "Ġhon": 3477,
      "ĠFirst": 3478,
      "ĠEduc": 3479,
      "Ġprotection": 3480,
      "Ġtable": 3481,
      "Ġfacilit": 3482,
      "right": 3483,
      "Ġ197": 3484,
      "Ġhelping": 3485,
      "Ġforward": 3486,
      "Ġtree": 3487,
      "Ġtherapy": 3488,
      "ceed": 3489,
      "Ġexamine": 3490,
      "Ġfoot": 3491,
      "Ġbeliefs": 3492,
      "Ġintric": 3493,
      "uff": 3494,
      "Ġresid": 3495,
      "Ġconcent": 3496,
      "Ġeat": 3497,
      "Ġfight": 3498,
      "Ġcapac": 3499,
      "Ġsituations": 3500,
      "Ġmoment": 3501,
      "Ġexplain": 3502,
      "set": 3503,
      "Ġrespond": 3504,
      "Ġox": 3505,
      "Ġcomprehens": 3506,
      "ĠFl": 3507,
      "ros": 3508,
      "Ġgoal": 3509,
      "Ġingred": 3510,
      "Ġsustainable": 3511,
      "Ġdang": 3512,
      "Ġsetting": 3513,
      "Ġexercise": 3514,
      "21": 3515,
      "ĠYork": 3516,
      "Ġtasks": 3517,
      "ĠChina": 3518,
      "Ġvariety": 3519,
      "Ġsix": 3520,
      "amin": 3521,
      "Ġattem": 3522,
      "Ġdat": 3523,
      "ĠCommun": 3524,
      "Ġmathemat": 3525,
      "Ġadvance": 3526,
      "Ġpurpose": 3527,
      "Ġexamining": 3528,
      "Ġlimited": 3529,
      "Ġbond": 3530,
      "ober": 3531,
      "olec": 3532,
      "Ġcreative": 3533,
      "uge": 3534,
      "Ġshown": 3535,
      "Ġappe": 3536,
      "Ġinteresting": 3537,
      "abet": 3538,
      "Ġsus": 3539,
      "Ġdetermine": 3540,
      "Ġjud": 3541,
      "Ġadminist": 3542,
      "ingu": 3543,
      "Ġbodies": 3544,
      "rong": 3545,
      "Ġhot": 3546,
      "Ġseason": 3547,
      "Ġdry": 3548,
      "ifying": 3549,
      "urban": 3550,
      "iers": 3551,
      "Ġthous": 3552,
      "cks": 3553,
      "Ġ11": 3554,
      "Ġminutes": 3555,
      "ĠDuring": 3556,
      "Ġfaced": 3557,
      "Ġimmedi": 3558,
      "Ġadjust": 3559,
      "ĠState": 3560,
      "Ġconstit": 3561,
      "ĠOf": 3562,
      "Ġdiseases": 3563,
      "Ġdetails": 3564,
      "Ġdiversity": 3565,
      "Ġdidn": 3566,
      "Ġadded": 3567,
      "Ġcard": 3568,
      "Ġmilitary": 3569,
      "Ġinput": 3570,
      "ether": 3571,
      "Ġauthors": 3572,
      "Ġforces": 3573,
      "rag": 3574,
      "Ġincreasingly": 3575,
      "Ġbacter": 3576,
      "Ġhtt": 3577,
      "osition": 3578,
      "ĠTrans": 3579,
      "22": 3580,
      "Ġearth": 3581,
      "ĠNe": 3582,
      "Ġfinding": 3583,
      "Ġvirus": 3584,
      "Ġlo": 3585,
      "Ġfast": 3586,
      "ĠMus": 3587,
      "ino": 3588,
      "cles": 3589,
      "ĠScience": 3590,
      "ĠAc": 3591,
      "Ġstudying": 3592,
      "wise": 3593,
      "Ġlabor": 3594,
      "Ġschol": 3595,
      "Ġexch": 3596,
      "ederal": 3597,
      "Ġsequ": 3598,
      "uman": 3599,
      "ucle": 3600,
      "Ġintellig": 3601,
      "Ġpage": 3602,
      "yd": 3603,
      "Ġseeking": 3604,
      "ĠEast": 3605,
      "rition": 3606,
      "Ġreducing": 3607,
      "Ġequipment": 3608,
      "Ġmut": 3609,
      "Ġextreme": 3610,
      "urg": 3611,
      "Ġadvoc": 3612,
      "Ġpieces": 3613,
      "alities": 3614,
      "mental": 3615,
      "Ġongoing": 3616,
      "uild": 3617,
      "Ġcam": 3618,
      "Ġcred": 3619,
      "ibilities": 3620,
      "anging": 3621,
      "Ġonto": 3622,
      "ĠSm": 3623,
      "Ġsolid": 3624,
      "Ġ50": 3625,
      "usive": 3626,
      "ief": 3627,
      "ocol": 3628,
      "imens": 3629,
      "Ġveh": 3630,
      "Ġdevice": 3631,
      "Ġresilience": 3632,
      "Ġenvironments": 3633,
      "python": 3634,
      "encing": 3635,
      "Ġaccom": 3636,
      "Ġrepresents": 3637,
      "Ġeducational": 3638,
      "Ġinitial": 3639,
      "Ġfeeling": 3640,
      "ĠMy": 3641,
      "Ġdou": 3642,
      "Ġwhose": 3643,
      "Ġproperties": 3644,
      "ought": 3645,
      "lation": 3646,
      "Ġwanted": 3647,
      "ĠGl": 3648,
      "Ġtiss": 3649,
      "Ġadvanced": 3650,
      "Ġpeace": 3651,
      "Ġstage": 3652,
      "Ġapply": 3653,
      "Ġtrees": 3654,
      "Ġbase": 3655,
      "Ġphen": 3656,
      "pe": 3657,
      "Ġexisting": 3658,
      "att": 3659,
      "ĠSystem": 3660,
      "Ġaverage": 3661,
      "zz": 3662,
      "Ġord": 3663,
      "Ġalgorith": 3664,
      "Ġreality": 3665,
      "Ġroles": 3666,
      "Ġple": 3667,
      "Ġlack": 3668,
      "Ġwatch": 3669,
      "Ġwaste": 3670,
      "Ġlimit": 3671,
      "Ġfelt": 3672,
      "Ġincorporating": 3673,
      "Ġworldwide": 3674,
      "Ġessay": 3675,
      "Ġexpression": 3676,
      "iveness": 3677,
      "Ġprofessionals": 3678,
      "Ġvacc": 3679,
      "Ġbab": 3680,
      "Ġmanage": 3681,
      "Ġanswer": 3682,
      "Ġcarry": 3683,
      ".)": 3684,
      "Ġinterpret": 3685,
      "Ġthus": 3686,
      "Ġsolution": 3687,
      "Ġorganization": 3688,
      "Ġspeak": 3689,
      "ĠKing": 3690,
      "Ġmother": 3691,
      "IS": 3692,
      "Ġcapital": 3693,
      "inks": 3694,
      "Ġjustice": 3695,
      "Ġbenefit": 3696,
      "iance": 3697,
      "ĠCourse": 3698,
      "ĠEven": 3699,
      "Ġhighlight": 3700,
      "Ġfinal": 3701,
      "ira": 3702,
      "60": 3703,
      "Ġclos": 3704,
      "Ġgot": 3705,
      "ĠGo": 3706,
      "vest": 3707,
      "oly": 3708,
      "Ġcontroll": 3709,
      "Ġtend": 3710,
      "Ġacqu": 3711,
      "Ġdirectly": 3712,
      "ĠTw": 3713,
      "Ġfundam": 3714,
      "Ġsmaller": 3715,
      "Ġpow": 3716,
      "aks": 3717,
      "Ġhabit": 3718,
      "Ġdark": 3719,
      "Ġbrought": 3720,
      "ffic": 3721,
      "Ġfeature": 3722,
      "ĠGra": 3723,
      "ĠPar": 3724,
      "ception": 3725,
      "Ġhappens": 3726,
      "Ġroad": 3727,
      "Ġsaw": 3728,
      "Ġparam": 3729,
      "Ġwonder": 3730,
      "Ġcolors": 3731,
      "ued": 3732,
      "ha": 3733,
      "ĠInstead": 3734,
      "Ġfamous": 3735,
      "Ġdecre": 3736,
      "Ġleaders": 3737,
      "Ġtrade": 3738,
      "ĠCur": 3739,
      "Ġcentral": 3740,
      "iable": 3741,
      "Ġconstant": 3742,
      "Ġagric": 3743,
      "ky": 3744,
      "Ġourselves": 3745,
      "odes": 3746,
      "ternal": 3747,
      "Ġinstru": 3748,
      "Ġfindings": 3749,
      "Ġlanguages": 3750,
      "ĠFrench": 3751,
      "vert": 3752,
      "Ġpoor": 3753,
      "ĠGree": 3754,
      "Ġtoward": 3755,
      "Ġserious": 3756,
      "ingly": 3757,
      "reet": 3758,
      "Ġfaith": 3759,
      "aught": 3760,
      "Ġmaxim": 3761,
      "otic": 3762,
      "Ġweather": 3763,
      "Ġnation": 3764,
      "ffect": 3765,
      "Ġsounds": 3766,
      "Ġ25": 3767,
      "Ġsevere": 3768,
      "Ġequal": 3769,
      "Ġpossess": 3770,
      "Bob": 3771,
      "Ġbit": 3772,
      "Ġ,": 3773,
      "ocks": 3774,
      "ĠHere": 3775,
      "ager": 3776,
      "Ġprepar": 3777,
      "Ġurban": 3778,
      "Ġplanet": 3779,
      "ees": 3780,
      "ivating": 3781,
      "Ġder": 3782,
      "Ġleaves": 3783,
      "cean": 3784,
      "Ġfiction": 3785,
      "Ġbecoming": 3786,
      "Ġopportunity": 3787,
      "iced": 3788,
      "Ġsexual": 3789,
      "ĠAustral": 3790,
      "Ġcollaboration": 3791,
      "ĠAfrica": 3792,
      "load": 3793,
      "ula": 3794,
      "Ġaddressing": 3795,
      "Ġast": 3796,
      "Ġinnovative": 3797,
      "sect": 3798,
      "Ġrout": 3799,
      "Ġproperty": 3800,
      "Ġresource": 3801,
      "Ġheld": 3802,
      "Ġanything": 3803,
      "Ġswe": 3804,
      "ĠAccording": 3805,
      "Ġlocation": 3806,
      "Ġmil": 3807,
      "IN": 3808,
      "ĠUse": 3809,
      "Ġdetect": 3810,
      "Ġbill": 3811,
      "tical": 3812,
      "Ġeating": 3813,
      "itage": 3814,
      "lands": 3815,
      "ĠThen": 3816,
      "Ġremind": 3817,
      "ĠRuss": 3818,
      "ognitive": 3819,
      "Ġvit": 3820,
      "Ġfeet": 3821,
      "ĠDo": 3822,
      "Ġpref": 3823,
      "Ġgenerally": 3824,
      "Ġsupply": 3825,
      "Ġreduced": 3826,
      "used": 3827,
      "Another": 3828,
      "Ġsea": 3829,
      "arian": 3830,
      "Ġexec": 3831,
      "Ġscreen": 3832,
      "Ġincluded": 3833,
      "Ġexposure": 3834,
      "ĠHave": 3835,
      "Ġinvolving": 3836,
      "Ġcarefully": 3837,
      "ĠMon": 3838,
      "Ġroot": 3839,
      "Ġexpert": 3840,
      "idden": 3841,
      "Ġfoster": 3842,
      "And": 3843,
      "Ġnews": 3844,
      "ĠHar": 3845,
      "Ġwent": 3846,
      "force": 3847,
      "Ġteacher": 3848,
      "Ġmount": 3849,
      "Ġresulting": 3850,
      "Ġgather": 3851,
      "bre": 3852,
      "mosp": 3853,
      "Ġbad": 3854,
      "ĠII": 3855,
      "Ġgradu": 3856,
      "making": 3857,
      "Ġtou": 3858,
      "mission": 3859,
      "Ġcitizens": 3860,
      "Ġweak": 3861,
      "son": 3862,
      "Ġtechnique": 3863,
      "Ġreceive": 3864,
      "pper": 3865,
      "water": 3866,
      "Ġspiritual": 3867,
      "itch": 3868,
      "Ġhighly": 3869,
      "Ġamazing": 3870,
      "ĠIndian": 3871,
      "Ġworry": 3872,
      "Ġmaybe": 3873,
      "Ġlost": 3874,
      "Ġchanging": 3875,
      "Ġoperations": 3876,
      "Ġobtain": 3877,
      "ĠOther": 3878,
      "ĠÂ": 3879,
      "Ġinterests": 3880,
      "rance": 3881,
      "Ġsold": 3882,
      "Ġpopulations": 3883,
      "Ġtesting": 3884,
      "ĠAre": 3885,
      "lim": 3886,
      "Ġexperienced": 3887,
      "ĠJes": 3888,
      "olic": 3889,
      "olved": 3890,
      "Ġfields": 3891,
      "roll": 3892,
      "Ġpoly": 3893,
      "Ġice": 3894,
      "onic": 3895,
      "ned": 3896,
      "pected": 3897,
      "Ġresistance": 3898,
      "ĠRead": 3899,
      "Ġdelic": 3900,
      "Ġnetworks": 3901,
      "Ġstandards": 3902,
      "iding": 3903,
      "ĠDon": 3904,
      "na": 3905,
      "Ġworkers": 3906,
      "Ġdisplay": 3907,
      "Ġcou": 3908,
      "bit": 3909,
      "Ġmovements": 3910,
      "che": 3911,
      "ĠEd": 3912,
      "Ġproduced": 3913,
      "Ġdream": 3914,
      "dent": 3915,
      "Ġeffort": 3916,
      "Ġaffected": 3917,
      "Ġes": 3918,
      "Ġempathy": 3919,
      "Ġfront": 3920,
      "Ġdistribution": 3921,
      "Ġstrength": 3922,
      "Ġbroader": 3923,
      "Ġconnected": 3924,
      "ĠGreat": 3925,
      "estic": 3926,
      "Ġdepending": 3927,
      "Ġvict": 3928,
      "sec": 3929,
      "Ġsocietal": 3930,
      "Ġencourage": 3931,
      "ĠSimilarly": 3932,
      "gn": 3933,
      "Ġhyp": 3934,
      "Ġestim": 3935,
      "Ġlandscape": 3936,
      "Ġwon": 3937,
      "ulating": 3938,
      "While": 3939,
      "Ġprivate": 3940,
      "Ġstore": 3941,
      "ometimes": 3942,
      "Ġvary": 3943,
      "icip": 3944,
      "ĠWill": 3945,
      "iosity": 3946,
      "Ġsigns": 3947,
      "Ġcry": 3948,
      "ĠRed": 3949,
      "Ġready": 3950,
      "Ġju": 3951,
      "rupt": 3952,
      "Ġvast": 3953,
      "inese": 3954,
      "Ġappreciation": 3955,
      "Ad": 3956,
      "Ġreasons": 3957,
      "Ġsmooth": 3958,
      "Ġframew": 3959,
      "ructure": 3960,
      "Ġcreativity": 3961,
      "Ġcook": 3962,
      "Ġassign": 3963,
      "uting": 3964,
      "Ġfigure": 3965,
      "Ġegg": 3966,
      "ĠPeople": 3967,
      "Ġblock": 3968,
      "Ġfile": 3969,
      "Ġrequirements": 3970,
      "Ġbirth": 3971,
      "Ġmob": 3972,
      "Ġconsequences": 3973,
      "Ġexcess": 3974,
      "place": 3975,
      "Ġexhib": 3976,
      "Ġprotein": 3977,
      "ensity": 3978,
      "Ġimproved": 3979,
      "Ġhear": 3980,
      "Ġprocessing": 3981,
      "Ġcollection": 3982,
      "Ġtail": 3983,
      "urance": 3984,
      "40": 3985,
      "ĠCount": 3986,
      "()": 3987,
      "Ġcausing": 3988,
      "Ġpicture": 3989,
      "Ġbelong": 3990,
      "Ġreveal": 3991,
      "Ġincredible": 3992,
      "Ġlength": 3993,
      "Ġmolec": 3994,
      "Ġofficial": 3995,
      "Ġ#": 3996,
      "Ġsolar": 3997,
      "Ġensures": 3998,
      "Ġpreserv": 3999,
      "Ġinstruct": 4000,
      "useum": 4001,
      "Ġupd": 4002,
      "Ġconstruction": 4003,
      "col": 4004,
      "edom": 4005,
      "ypes": 4006,
      "Why": 4007,
      "ype": 4008,
      "Ġgoes": 4009,
      "Here": 4010,
      "Ġoffering": 4011,
      "Ġreported": 4012,
      "Ġlocated": 4013,
      "On": 4014,
      "Ġfocused": 4015,
      "Ġanyone": 4016,
      "Ġhar": 4017,
      "Ġinformed": 4018,
      "ĠHistory": 4019,
      "esty": 4020,
      "ords": 4021,
      "Ġfuel": 4022,
      "With": 4023,
      "Alice": 4024,
      "Ġnavigate": 4025,
      "gy": 4026,
      "Ġregions": 4027,
      "ON": 4028,
      "Ġmentioned": 4029,
      "xts": 4030,
      "Ġcontains": 4031,
      "appy": 4032,
      "Ġthird": 4033,
      "Ġsugar": 4034,
      "à¤": 4035,
      "25": 4036,
      "These": 4037,
      "Ġtap": 4038,
      "Ġbox": 4039,
      "Ġplatforms": 4040,
      "Ġpurch": 4041,
      "ourage": 4042,
      "bal": 4043,
      "rief": 4044,
      "resp": 4045,
      "Ġchoices": 4046,
      "ĠSpec": 4047,
      "Ġcenter": 4048,
      "Ġfully": 4049,
      "ded": 4050,
      "ibly": 4051,
      "Ġwis": 4052,
      "Ġcounter": 4053,
      "airs": 4054,
      "ĠInstit": 4055,
      "Ġmig": 4056,
      "ĠJu": 4057,
      "Ġuseful": 4058,
      "asts": 4059,
      "hab": 4060,
      "Ġevolution": 4061,
      "Ġexperiment": 4062,
      "Ġsettings": 4063,
      "ogue": 4064,
      "formation": 4065,
      "Ġcapacity": 4066,
      "ogen": 4067,
      "ev": 4068,
      "ĠPract": 4069,
      "Ġgiving": 4070,
      "ogether": 4071,
      "Ġrein": 4072,
      "Ġtests": 4073,
      "ĠRel": 4074,
      "rative": 4075,
      "raft": 4076,
      "Ġrecip": 4077,
      "Ġden": 4078,
      "Ġworth": 4079,
      "etry": 4080,
      "Ġhous": 4081,
      "Ġstarting": 4082,
      "osystem": 4083,
      "ĠDef": 4084,
      "ĠSw": 4085,
      "Ġlayer": 4086,
      "Ġingredients": 4087,
      "Ġphenomen": 4088,
      "Ġhosp": 4089,
      "ĠAnt": 4090,
      "rical": 4091,
      "Ġcharacteristics": 4092,
      "ares": 4093,
      "Ġolder": 4094,
      "Ġweb": 4095,
      "Ġengagement": 4096,
      "Ġtim": 4097,
      "Ġsports": 4098,
      "âĢ¢": 4099,
      "Ġplayed": 4100,
      "Ġstatus": 4101,
      "Ġstyle": 4102,
      "Ġatmosp": 4103,
      "icing": 4104,
      "Ġfollowed": 4105,
      "Ġpractical": 4106,
      "istry": 4107,
      "Ġphilosoph": 4108,
      "Ġanxiety": 4109,
      "ĠEl": 4110,
      "Ġeasier": 4111,
      "Ġspaces": 4112,
      "ĠJesus": 4113,
      "AN": 4114,
      "Ġacid": 4115,
      "Ġadventure": 4116,
      "Ġhelped": 4117,
      "First": 4118,
      "Ġmoving": 4119,
      "ĠChild": 4120,
      "known": 4121,
      "Ġenable": 4122,
      "Ġperhaps": 4123,
      "Ġtexts": 4124,
      "IC": 4125,
      "Ġdiscussions": 4126,
      "Ġmonit": 4127,
      "ĠIts": 4128,
      "Ġkeeping": 4129,
      "Ġenab": 4130,
      "ĠWrit": 4131,
      "icated": 4132,
      "Ġacademic": 4133,
      "abetes": 4134,
      "Ġhol": 4135,
      "ĠPat": 4136,
      "Ġtrack": 4137,
      "Ġcreation": 4138,
      "Ġwebsite": 4139,
      "However": 4140,
      "Ġgold": 4141,
      "Ġweeks": 4142,
      "Ġgir": 4143,
      "ription": 4144,
      "hetic": 4145,
      "ĠSar": 4146,
      "Ġillness": 4147,
      "lev": 4148,
      "Ġfrequently": 4149,
      "Ġaimed": 4150,
      "Ġexploration": 4151,
      "Ġattract": 4152,
      "raw": 4153,
      "Ġinfection": 4154,
      "ĠChar": 4155,
      "Ġhom": 4156,
      "Ġrise": 4157,
      "Ġinnovation": 4158,
      "Ġball": 4159,
      "Ġfundamental": 4160,
      "Ġalone": 4161,
      "bra": 4162,
      "Ġadding": 4163,
      "ĠThink": 4164,
      "ĠPython": 4165,
      "Ġdynamics": 4166,
      "Ġinstitutions": 4167,
      "udd": 4168,
      "Ġassist": 4169,
      "ented": 4170,
      "iology": 4171,
      "Ġleave": 4172,
      "Ġnutri": 4173,
      "ĠUsing": 4174,
      "coh": 4175,
      "ĠEducation": 4176,
      "Ġsess": 4177,
      "Ġcontinues": 4178,
      "ask": 4179,
      "Ġalthough": 4180,
      "orage": 4181,
      "!\"": 4182,
      "Ġgets": 4183,
      "Ġserves": 4184,
      "Ġmiss": 4185,
      "ĠChinese": 4186,
      "Ġsites": 4187,
      "Ġwid": 4188,
      "ĠIntroduction": 4189,
      "Ġaren": 4190,
      "ĠMost": 4191,
      "iration": 4192,
      "Ġmiddle": 4193,
      "ĠKeep": 4194,
      "Ġbeginning": 4195,
      "umn": 4196,
      "comp": 4197,
      "eech": 4198,
      "Ġcareful": 4199,
      "iant": 4200,
      "Ġplans": 4201,
      "ĠCanada": 4202,
      "Ġvul": 4203,
      "ĊĠĠĠĠĠĠĠ": 4204,
      "orial": 4205,
      "Ġcrop": 4206,
      "Ġguidelines": 4207,
      "Ġdrawing": 4208,
      "---": 4209,
      "Ġdepend": 4210,
      "Ġloved": 4211,
      "ĠAmericans": 4212,
      "Ġrock": 4213,
      "Ġprimarily": 4214,
      "ximately": 4215,
      "ĠProg": 4216,
      "Ġten": 4217,
      "Ġcities": 4218,
      "Ġunf": 4219,
      "Ġcuriosity": 4220,
      "ecause": 4221,
      "Ġfigures": 4222,
      "Ġmonth": 4223,
      "He": 4224,
      "Ġdoctor": 4225,
      "Ġstrengt": 4226,
      "Introduction": 4227,
      "book": 4228,
      "Ġglass": 4229,
      "ĠAlex": 4230,
      "Ġmedicine": 4231,
      "Ġflex": 4232,
      "Ġcircum": 4233,
      "AC": 4234,
      "Before": 4235,
      "Ġhimself": 4236,
      "ashing": 4237,
      "Ġcand": 4238,
      "Ġcommer": 4239,
      "rogen": 4240,
      "Ġrecommend": 4241,
      "Ġassum": 4242,
      "Ġefficiency": 4243,
      "ĠDisc": 4244,
      "Ġguidance": 4245,
      "Ġthousands": 4246,
      "Ġallowed": 4247,
      "Ġalign": 4248,
      "Ġreceived": 4249,
      "Ġultimately": 4250,
      "Ġethical": 4251,
      "ĠJour": 4252,
      "Ġsave": 4253,
      "Ġapplied": 4254,
      "Ġeconomy": 4255,
      "oe": 4256,
      "ressive": 4257,
      "rations": 4258,
      "Ġhappen": 4259,
      "pping": 4260,
      "ping": 4261,
      "Ġpassed": 4262,
      "tery": 4263,
      "ĠInternational": 4264,
      "orical": 4265,
      "Ġscenar": 4266,
      "Ġenter": 4267,
      "Ġrunning": 4268,
      "cking": 4269,
      "ny": 4270,
      "Ġking": 4271,
      "Ġnucle": 4272,
      "Ġbuy": 4273,
      "ightly": 4274,
      "Ġknows": 4275,
      "Ġclosely": 4276,
      "unch": 4277,
      "Ġcontract": 4278,
      "idst": 4279,
      "\".": 4280,
      "Ġlibrary": 4281,
      "pan": 4282,
      "Ġcooking": 4283,
      "Ġengineering": 4284,
      "Ġcold": 4285,
      "Ġcapable": 4286,
      "Ġboundaries": 4287,
      "Ġburn": 4288,
      "Ġconsumption": 4289,
      "Ġ:": 4290,
      "Ġimpacts": 4291,
      "aid": 4292,
      "Ġabsor": 4293,
      "Ġpet": 4294,
      "Ġmaster": 4295,
      "Is": 4296,
      "Ġcoming": 4297,
      "Ġintricate": 4298,
      "Ġpric": 4299,
      "Ġload": 4300,
      "ĠFran": 4301,
      "ĠConsider": 4302,
      "ĠServ": 4303,
      "Ġcompar": 4304,
      "Ġreligion": 4305,
      "Ġ24": 4306,
      "bl": 4307,
      "OR": 4308,
      "oses": 4309,
      "Ġtour": 4310,
      "Ġinfect": 4311,
      "atur": 4312,
      "Ġ\\": 4313,
      "Ġseems": 4314,
      "Ġoutput": 4315,
      "ishing": 4316,
      "==": 4317,
      "ham": 4318,
      "Ġprefer": 4319,
      "Ġvision": 4320,
      "Ġrule": 4321,
      "Ġdistance": 4322,
      "Ġfamiliar": 4323,
      "rant": 4324,
      "Ġsmart": 4325,
      "Chapter": 4326,
      "Ġgives": 4327,
      "ĠWest": 4328,
      "Ġmanaging": 4329,
      "Ġindigenous": 4330,
      "ndom": 4331,
      "Ġrecognize": 4332,
      "Ġworked": 4333,
      "ĠConf": 4334,
      "Ġsac": 4335,
      "ventions": 4336,
      "Ġtold": 4337,
      "Ġwrong": 4338,
      "Ġfix": 4339,
      "Ġbott": 4340,
      "pris": 4341,
      "Ġbul": 4342,
      "Ġcontrast": 4343,
      "Ġconflict": 4344,
      "rix": 4345,
      "Ġtherefore": 4346,
      "Ġunex": 4347,
      "Ġgenetic": 4348,
      "Ġsatis": 4349,
      "ounter": 4350,
      "Ġforeign": 4351,
      "Ġseek": 4352,
      "ara": 4353,
      "Ġtopic": 4354,
      "ĠSocial": 4355,
      "undred": 4356,
      "Ġresponsibility": 4357,
      "Ġneu": 4358,
      "Ġborn": 4359,
      "Ġtrial": 4360,
      "Ġdeal": 4361,
      "alle": 4362,
      "aign": 4363,
      "Ġabilities": 4364,
      "hips": 4365,
      "Ġtrends": 4366,
      "Ġecosystem": 4367,
      "Ġturned": 4368,
      "iling": 4369,
      "ĠMat": 4370,
      "Ġ40": 4371,
      "Ġhun": 4372,
      "ĠWelcome": 4373,
      "Ġstream": 4374,
      "Ġeventually": 4375,
      "Ġprobably": 4376,
      "www": 4377,
      "Ġrain": 4378,
      "ĠDay": 4379,
      "ius": 4380,
      "Ġextract": 4381,
      "Ġdecl": 4382,
      "Ġintelligence": 4383,
      "Ġtransfer": 4384,
      "Ġleads": 4385,
      "iforn": 4386,
      "ĠHigh": 4387,
      "inn": 4388,
      "Ġcris": 4389,
      "Ġfemale": 4390,
      "Ġpu": 4391,
      "Ġlesson": 4392,
      "atin": 4393,
      "Ġdiscussion": 4394,
      "Ġinteractions": 4395,
      "Ġrace": 4396,
      "Ġwat": 4397,
      "Ġvulner": 4398,
      "ĠMr": 4399,
      "Ġhair": 4400,
      "ias": 4401,
      "Ġmember": 4402,
      "Ġpriv": 4403,
      "ĠChe": 4404,
      "ĠProt": 4405,
      "Ġcognitive": 4406,
      "Ġviolence": 4407,
      "Ġhappened": 4408,
      "Ġdivid": 4409,
      "Ġbehaviors": 4410,
      "Ġtruly": 4411,
      "Ġimproving": 4412,
      "hent": 4413,
      "Ġopin": 4414,
      "Ġtiny": 4415,
      "antic": 4416,
      "Ġchoice": 4417,
      "itis": 4418,
      "Ġsecure": 4419,
      "oke": 4420,
      "Ġdisorders": 4421,
      "Ġwoman": 4422,
      "Ġmetal": 4423,
      "ĠDec": 4424,
      "Ġhidden": 4425,
      "Ġmotiv": 4426,
      "Ġleaving": 4427,
      "Ġstrategy": 4428,
      "sequently": 4429,
      "herent": 4430,
      "Pro": 4431,
      "ĠHappy": 4432,
      "Ġattempt": 4433,
      "Ġsong": 4434,
      "exic": 4435,
      "Ġpresence": 4436,
      "Ġanti": 4437,
      "ĠAI": 4438,
      "ails": 4439,
      "Ġprice": 4440,
      "Ġdead": 4441,
      "Ġrare": 4442,
      "Ġperspective": 4443,
      "esson": 4444,
      "ĠBlack": 4445,
      "pped": 4446,
      "Ġhomes": 4447,
      "Ġexcell": 4448,
      "Ġexpected": 4449,
      "Ġspect": 4450,
      "Ġsuppl": 4451,
      "Ġoccurs": 4452,
      "Ġnp": 4453,
      "Ġcollective": 4454,
      "Ġparticipants": 4455,
      "Ġrecently": 4456,
      "Ġenables": 4457,
      "Ġcompletely": 4458,
      "ographic": 4459,
      "Ġinternal": 4460,
      "ED": 4461,
      "Ġcenturies": 4462,
      "Ġwasn": 4463,
      "ĠBoth": 4464,
      "Ġgarden": 4465,
      "Ġexternal": 4466,
      "ĠJan": 4467,
      "Ġliqu": 4468,
      "ĠSam": 4469,
      "Ġalongside": 4470,
      "unction": 4471,
      "Ġvibr": 4472,
      "Ġcloser": 4473,
      "ĠEnviron": 4474,
      "ĠTitle": 4475,
      "Ġoccup": 4476,
      "cohol": 4477,
      "off": 4478,
      "irection": 4479,
      "Ġelement": 4480,
      "ĠGerman": 4481,
      "Ġfant": 4482,
      "ĠIdent": 4483,
      "Ġrepe": 4484,
      "orough": 4485,
      "Ġmulti": 4486,
      "Ġbarri": 4487,
      "Ġheritage": 4488,
      "Ġtruth": 4489,
      "Ġcareer": 4490,
      "Ġattack": 4491,
      "rest": 4492,
      "ifornia": 4493,
      "Ġscale": 4494,
      "que": 4495,
      "Ġlies": 4496,
      "Â°": 4497,
      "Ġmessage": 4498,
      "Un": 4499,
      "assion": 4500,
      "Ġmeaningful": 4501,
      "ĠThus": 4502,
      "ĠAug": 4503,
      "ball": 4504,
      "Ġdescribed": 4505,
      "asp": 4506,
      "uing": 4507,
      "Ġbud": 4508,
      "Through": 4509,
      "ĠWho": 4510,
      "ventional": 4511,
      "Ġformed": 4512,
      "Ġscholars": 4513,
      "Ġpen": 4514,
      "Ġmere": 4515,
      "acing": 4516,
      "related": 4517,
      "Ġbirds": 4518,
      "uilding": 4519,
      "Ġdedicated": 4520,
      "Ġexciting": 4521,
      "Ġmel": 4522,
      "ificial": 4523,
      "Ġsupporting": 4524,
      "Ġfactor": 4525,
      "ĠCity": 4526,
      "rows": 4527,
      "Ġcoast": 4528,
      "Ġtrib": 4529,
      "Ġblue": 4530,
      "ĠJewish": 4531,
      "eters": 4532,
      "Ġactual": 4533,
      "Ġsummer": 4534,
      "Ġbran": 4535,
      "ama": 4536,
      "respond": 4537,
      "Ġearn": 4538,
      "EN": 4539,
      "ĠInc": 4540,
      "Ġpros": 4541,
      "abric": 4542,
      "ĠCenter": 4543,
      "ĠBar": 4544,
      "Ġmist": 4545,
      "Ġvirtual": 4546,
      "Ġvill": 4547,
      "Ġunivers": 4548,
      "ero": 4549,
      "poses": 4550,
      "Ġbeauty": 4551,
      "Ġrh": 4552,
      "outhern": 4553,
      "Ġpush": 4554,
      "Ġmal": 4555,
      "uk": 4556,
      "ĠSur": 4557,
      "Ġbacteria": 4558,
      "rote": 4559,
      "Ġnothing": 4560,
      "Ġheavy": 4561,
      "Ġpotentially": 4562,
      "osen": 4563,
      "Ġshapes": 4564,
      "ĠFam": 4565,
      "Ġpresented": 4566,
      "Ġfreedom": 4567,
      "Ġfilm": 4568,
      "Ġdisorder": 4569,
      "Ġnote": 4570,
      "Ġimplications": 4571,
      "Ġstim": 4572,
      "Ġroots": 4573,
      "uary": 4574,
      "Ġbelieved": 4575,
      "Ġincome": 4576,
      "Ġaccurate": 4577,
      "Ġdiscrim": 4578,
      "ĠSometimes": 4579,
      "Ġexperts": 4580,
      "akers": 4581,
      "ĠEnc": 4582,
      "Ġboard": 4583,
      "ĠLaw": 4584,
      "era": 4585,
      "Ġvoice": 4586,
      "23": 4587,
      "Ġliterary": 4588,
      "Ġfather": 4589,
      "Ġmarg": 4590,
      "volution": 4591,
      "ĠAdd": 4592,
      "Ġprepared": 4593,
      "ĠEngland": 4594,
      "Ġfruit": 4595,
      "Ġknowing": 4596,
      "ĠRef": 4597,
      "Ġanalyze": 4598,
      "ĠSince": 4599,
      "board": 4600,
      "Ġterrit": 4601,
      "Ġimmune": 4602,
      "ĠWhy": 4603,
      "rees": 4604,
      "Ġmid": 4605,
      "Ġhundred": 4606,
      "Ġnative": 4607,
      "Ġtask": 4608,
      "Ġmouth": 4609,
      "Ġrepresentation": 4610,
      "Ġshif": 4611,
      "order": 4612,
      "Ġadult": 4613,
      "Ġdefined": 4614,
      "ĠData": 4615,
      "Ġpassion": 4616,
      "Ġstorage": 4617,
      "ĠGovern": 4618,
      "Ġcommonly": 4619,
      "house": 4620,
      "enty": 4621,
      "anish": 4622,
      "eline": 4623,
      "Ġunderlying": 4624,
      "othes": 4625,
      "Ġsets": 4626,
      "rie": 4627,
      "Ġprinc": 4628,
      "Ġ194": 4629,
      "Ġsav": 4630,
      "inations": 4631,
      "ĠVal": 4632,
      "ellect": 4633,
      "Ġshowed": 4634,
      "Ġversion": 4635,
      "Ġpursu": 4636,
      "Ġroll": 4637,
      "Ġchance": 4638,
      "Ġacknow": 4639,
      "Ġcourt": 4640,
      "Ġcomputers": 4641,
      "icians": 4642,
      "omy": 4643,
      "Ġpregn": 4644,
      "Ġrot": 4645,
      "Ġapproximately": 4646,
      "enses": 4647,
      "Ġplot": 4648,
      "Ġnutrition": 4649,
      "raction": 4650,
      "Ġpick": 4651,
      "ĠTherefore": 4652,
      "ĠDesign": 4653,
      "Ġ196": 4654,
      "asting": 4655,
      "co": 4656,
      "Ġbuildings": 4657,
      "Ġcoord": 4658,
      "ĠProf": 4659,
      "rastructure": 4660,
      "Ġpul": 4661,
      "Ġgained": 4662,
      "Ġteeth": 4663,
      "Ġseparate": 4664,
      "ĠMexic": 4665,
      "Ġlayers": 4666,
      "rence": 4667,
      "Ġnames": 4668,
      "alysis": 4669,
      "Ġclinical": 4670,
      "Ġembracing": 4671,
      "rich": 4672,
      "ĠSuch": 4673,
      "Ġparent": 4674,
      "Ġemerging": 4675,
      "ĠConst": 4676,
      "ocal": 4677,
      "ĠCalifornia": 4678,
      "Ġmo": 4679,
      "ologists": 4680,
      "Ġdate": 4681,
      "Ġdeeply": 4682,
      "Ġdiscipl": 4683,
      "Ġknew": 4684,
      "Ġcircumst": 4685,
      "can": 4686,
      "Ġexperim": 4687,
      "Ġrealized": 4688,
      "Ġheight": 4689,
      "ĠAssoci": 4690,
      "Ġidentified": 4691,
      "Ġindustrial": 4692,
      "Ġmeeting": 4693,
      "ĠDespite": 4694,
      "ĠEvery": 4695,
      "while": 4696,
      "Ġstronger": 4697,
      "Ġdegree": 4698,
      "Ġfoundation": 4699,
      "omb": 4700,
      "Ġclassroom": 4701,
      "year": 4702,
      "Ġexcept": 4703,
      "ament": 4704,
      "Ġcommercial": 4705,
      "ĠBra": 4706,
      "Ġcollege": 4707,
      "Ġfert": 4708,
      "Ġdram": 4709,
      "ipped": 4710,
      "ister": 4711,
      "Ġrecords": 4712,
      "Ġtransl": 4713,
      "Ġtrig": 4714,
      "Ġwisdom": 4715,
      "Ġlargest": 4716,
      "Ġtemperatures": 4717,
      "Ġshall": 4718,
      "Ġexplained": 4719,
      "Ġregional": 4720,
      "Ġspeech": 4721,
      "uit": 4722,
      "ĠWestern": 4723,
      "Ġvalid": 4724,
      "orthern": 4725,
      "gypt": 4726,
      "Ġ2013": 4727,
      "Ġformation": 4728,
      "Ġhero": 4729,
      "Ġisol": 4730,
      "Ġassessment": 4731,
      "ped": 4732,
      "Ġcreatures": 4733,
      "Ġunexpected": 4734,
      "Ġmit": 4735,
      "Ġbasis": 4736,
      "Ġcorrespond": 4737,
      "Ġwit": 4738,
      "III": 4739,
      "rael": 4740,
      "ĠStudents": 4741,
      "Ġparties": 4742,
      "Ġsuggests": 4743,
      "Ġcreates": 4744,
      "Ġchanged": 4745,
      "Ġexchange": 4746,
      "Ġcommunicate": 4747,
      "ultane": 4748,
      "ĠLife": 4749,
      "Ġexpectations": 4750,
      "rapy": 4751,
      "Ġspot": 4752,
      "Ġsecret": 4753,
      "Ġconservation": 4754,
      "Ġtalking": 4755,
      "key": 4756,
      "nic": 4757,
      "Finally": 4758,
      "Ġoptimal": 4759,
      "Ġsubjects": 4760,
      "ogle": 4761,
      "IT": 4762,
      "rab": 4763,
      "Ġnotes": 4764,
      "aur": 4765,
      "Ġobst": 4766,
      "aph": 4767,
      "ĠVir": 4768,
      "asion": 4769,
      "pril": 4770,
      "Ġmechanisms": 4771,
      "mary": 4772,
      "Ġur": 4773,
      "Ġobserved": 4774,
      "ĠOrgan": 4775,
      "Ġplaced": 4776,
      "Ġsynt": 4777,
      "Ġvegetables": 4778,
      "Ġtechnological": 4779,
      "ken": 4780,
      "Ġcomponent": 4781,
      "Ġdiabetes": 4782,
      "ta": 4783,
      "Ġmonitoring": 4784,
      "ĠPark": 4785,
      "ste": 4786,
      "ĠInstitute": 4787,
      "Ġmath": 4788,
      "After": 4789,
      "inent": 4790,
      "Ġgeneration": 4791,
      "unately": 4792,
      "Ġfederal": 4793,
      "Ġtradition": 4794,
      "Ġlooked": 4795,
      "see": 4796,
      "ĠSarah": 4797,
      "Ġdesigns": 4798,
      "Ġencourages": 4799,
      "Ġintroduced": 4800,
      "EM": 4801,
      "Ġtissue": 4802,
      "ĠIslam": 4803,
      "Ġmap": 4804,
      "Ġ21": 4805,
      "Ġcloth": 4806,
      "aul": 4807,
      "80": 4808,
      "ĠMake": 4809,
      "Ġnearly": 4810,
      "Ġinspired": 4811,
      "Ġsolve": 4812,
      "ĠSet": 4813,
      "Ġcampaign": 4814,
      "fl": 4815,
      "24": 4816,
      "Ġ2014": 4817,
      "Ġbaby": 4818,
      "ĠBo": 4819,
      "ygen": 4820,
      "Ġstaff": 4821,
      "Ġwellbeing": 4822,
      "ĠOb": 4823,
      "Ġpersist": 4824,
      "Ġplastic": 4825,
      "Ġstrengthen": 4826,
      "Ġcutting": 4827,
      "Ġserved": 4828,
      "Ġnotice": 4829,
      "Ġdepression": 4830,
      "Ġconsistent": 4831,
      "Ġmuscle": 4832,
      "ica": 4833,
      "Ġrelease": 4834,
      "Ġalike": 4835,
      "Ġmission": 4836,
      "Ġcouldn": 4837,
      "lin": 4838,
      "Ġenabling": 4839,
      "Ġkn": 4840,
      "Ġpolitics": 4841,
      "Ġdirection": 4842,
      "Ġbrid": 4843,
      "ĠIndigenous": 4844,
      "ĠCre": 4845,
      "uses": 4846,
      "ups": 4847,
      "Ġrandom": 4848,
      "Ġperiods": 4849,
      "ĠWater": 4850,
      "Ġ2012": 4851,
      "ĠAv": 4852,
      "hus": 4853,
      "Ġfing": 4854,
      "Ġ2010": 4855,
      "Ġconsult": 4856,
      "Ġincreases": 4857,
      "Ġrenew": 4858,
      "ibl": 4859,
      "Ġremark": 4860,
      "Ġconversations": 4861,
      "Ġbed": 4862,
      "zy": 4863,
      "Ġwinter": 4864,
      "ĠUp": 4865,
      "Ġaid": 4866,
      "Ġgenerate": 4867,
      "Ġhop": 4868,
      "ĠDepartment": 4869,
      "Ġdefine": 4870,
      "Ġskill": 4871,
      "mal": 4872,
      "Ġmessages": 4873,
      "ĠCare": 4874,
      "iled": 4875,
      "Ġbreath": 4876,
      "fulness": 4877,
      "Ġrelax": 4878,
      "ĠCor": 4879,
      "Ġcompl": 4880,
      "ĠOff": 4881,
      "Ġgrand": 4882,
      "Ġamidst": 4883,
      "rum": 4884,
      "Ġremov": 4885,
      "telling": 4886,
      "Ġrat": 4887,
      "Ġauthent": 4888,
      "Ġcurious": 4889,
      "Ġrealm": 4890,
      "Ġtraum": 4891,
      "Ġmilk": 4892,
      "Ph": 4893,
      "Ġremove": 4894,
      "Ġelectricity": 4895,
      "ĠEgypt": 4896,
      "ĠAlso": 4897,
      "Ġdisp": 4898,
      "mitted": 4899,
      "ĠRiver": 4900,
      "Ġmeant": 4901,
      "ĠMiddle": 4902,
      "Ġsuitable": 4903,
      "Ġstraight": 4904,
      "ĠSee": 4905,
      "Ġmanip": 4906,
      "ĠDevelopment": 4907,
      "ĠCong": 4908,
      "Ġnations": 4909,
      "iverse": 4910,
      "Act": 4911,
      "Ġchann": 4912,
      "Ġemissions": 4913,
      "Ġregulations": 4914,
      "icism": 4915,
      "Ġmatters": 4916,
      "Ġsand": 4917,
      "Ġtreatments": 4918,
      "ollow": 4919,
      "Ġdemoc": 4920,
      "ĠPlan": 4921,
      "PA": 4922,
      "ĠOct": 4923,
      "ĠMark": 4924,
      "gery": 4925,
      "ĠPress": 4926,
      "Ġahead": 4927,
      "ĠMarch": 4928,
      "Ġpurposes": 4929,
      "ĠRoman": 4930,
      "Ġfabric": 4931,
      "Ġcircumstances": 4932,
      "Ġgoods": 4933,
      "reed": 4934,
      "Ġattrib": 4935,
      "Ġasking": 4936,
      "Ġfacing": 4937,
      "ĠJapanese": 4938,
      "lor": 4939,
      "Ġemerged": 4940,
      "ĠSk": 4941,
      "Ġleadership": 4942,
      "Ġinfrastructure": 4943,
      "Ġstyles": 4944,
      "uration": 4945,
      "Ġindependent": 4946,
      "Ġthorough": 4947,
      "aint": 4948,
      "Ġdialogue": 4949,
      "Ġpaint": 4950,
      "semb": 4951,
      "Ġsample": 4952,
      "Ġdrugs": 4953,
      "Ġtrou": 4954,
      "Ġcommand": 4955,
      "Ġinitiatives": 4956,
      "Once": 4957,
      "Ġparty": 4958,
      "Ġdesired": 4959,
      "Ar": 4960,
      "Ġspent": 4961,
      "Ġ2011": 4962,
      "More": 4963,
      "Ġclasses": 4964,
      "Ġdeliver": 4965,
      "OU": 4966,
      "ĠStep": 4967,
      "Sh": 4968,
      "och": 4969,
      "Ġlisten": 4970,
      "Ġembark": 4971,
      "Ġregularly": 4972,
      "Ġvent": 4973,
      "Ġfellow": 4974,
      "ĠIsrael": 4975,
      "ĠDav": 4976,
      "Ġalcohol": 4977,
      "Ġiron": 4978,
      "Ġrevolution": 4979,
      "ĠMc": 4980,
      "Ġharmful": 4981,
      "Ġlearners": 4982,
      "EC": 4983,
      "orous": 4984,
      "Ġ2020": 4985,
      "Ġinherent": 4986,
      "Ġwrote": 4987,
      "âĢĿ.": 4988,
      "Ġvibrant": 4989,
      "Ġpictures": 4990,
      "Ġwidely": 4991,
      "apers": 4992,
      "cest": 4993,
      "Ġenhancing": 4994,
      "tenance": 4995,
      "VID": 4996,
      "ĠWilliam": 4997,
      "Ġhappy": 4998,
      "Ġmedium": 4999,
      "ĠDNA": 5000,
      "Ġseeds": 5001,
      "avors": 5002,
      "Ġprofound": 5003,
      "ĠTime": 5004,
      "Ġartistic": 5005,
      "ĠTogether": 5006,
      "icy": 5007,
      "anges": 5008,
      "Ġnu": 5009,
      "Ġfacts": 5010,
      "Ġmale": 5011,
      "inant": 5012,
      "ĠGreek": 5013,
      "Ġmiles": 5014,
      "Ġprocedures": 5015,
      "BT": 5016,
      "ĠHuman": 5017,
      "Ġintellect": 5018,
      "Ġvolun": 5019,
      "Ġjournal": 5020,
      "hest": 5021,
      "Ġeveryday": 5022,
      "Ġrig": 5023,
      "Ġsignal": 5024,
      "ĠSub": 5025,
      "Ġconsidering": 5026,
      "iences": 5027,
      "Ġarray": 5028,
      "iot": 5029,
      "Ġintervention": 5030,
      "do": 5031,
      "Ġwealth": 5032,
      "Ġencounter": 5033,
      "text": 5034,
      "igure": 5035,
      "Ġpreserving": 5036,
      "rome": 5037,
      "Ġorganic": 5038,
      "rick": 5039,
      "ST": 5040,
      "ux": 5041,
      "cont": 5042,
      "faces": 5043,
      "rans": 5044,
      "Ġinternet": 5045,
      "Ġthick": 5046,
      "Ġ2015": 5047,
      "erate": 5048,
      "Ġcurrently": 5049,
      "Ġimmediately": 5050,
      "Ġpages": 5051,
      "Ġcontaining": 5052,
      "Ġenthus": 5053,
      "Ġ--": 5054,
      "Ġalt": 5055,
      "Ġpret": 5056,
      "Ġdiscussing": 5057,
      "edia": 5058,
      "Ġfruits": 5059,
      "Ġinvestment": 5060,
      "Ġfeedback": 5061,
      "xic": 5062,
      "Ġson": 5063,
      "ĠAng": 5064,
      "Ġresponses": 5065,
      "ĠMedic": 5066,
      "agon": 5067,
      "Ġsocieties": 5068,
      "ĠEmp": 5069,
      "pen": 5070,
      "Ġsem": 5071,
      "Ġfine": 5072,
      "Ġcoop": 5073,
      "Ġagg": 5074,
      "Ġatmosphere": 5075,
      "ĠAugust": 5076,
      "Ġchronic": 5077,
      "eria": 5078,
      "Ġinsight": 5079,
      "ĠExamples": 5080,
      "Ġpun": 5081,
      "ĠLearning": 5082,
      "ixt": 5083,
      "rors": 5084,
      "Ġelim": 5085,
      "rete": 5086,
      "ĠChurch": 5087,
      "ĠTest": 5088,
      "inding": 5089,
      "Ġprint": 5090,
      "Ġnearby": 5091,
      "ĠManagement": 5092,
      "Ġdynamic": 5093,
      "Ġoption": 5094,
      "ĠGermany": 5095,
      "Ġgovernments": 5096,
      "ĠBen": 5097,
      "ifies": 5098,
      "Ġsubstant": 5099,
      "atically": 5100,
      "ulum": 5101,
      "Ġplayers": 5102,
      "roph": 5103,
      "199": 5104,
      "Ġera": 5105,
      "ĠFrance": 5106,
      "AL": 5107,
      "tion": 5108,
      "cers": 5109,
      "oyal": 5110,
      "ĠPresident": 5111,
      "Ġexamination": 5112,
      "Ġexercises": 5113,
      "Ġinflam": 5114,
      "Ġsaying": 5115,
      "Ġthereby": 5116,
      "inc": 5117,
      "Ġminor": 5118,
      "Ġtransc": 5119,
      "ĠJune": 5120,
      "Ġformer": 5121,
      "Ġprecise": 5122,
      "Ġdecades": 5123,
      "nership": 5124,
      "dden": 5125,
      "Ġchosen": 5126,
      "Ġfaster": 5127,
      "ube": 5128,
      "Ġconver": 5129,
      "Ġexcellent": 5130,
      "rust": 5131,
      "Ġadvancements": 5132,
      "Ġletters": 5133,
      "ĠDi": 5134,
      "Ġsyn": 5135,
      "ĠHel": 5136,
      "Ġlistening": 5137,
      "Ġletter": 5138,
      "Ġâ": 5139,
      "Ġcraft": 5140,
      "Ġsou": 5141,
      "Ġcomprehensive": 5142,
      "Ġtips": 5143,
      "road": 5144,
      "Ġhousehold": 5145,
      "Ġ2016": 5146,
      "Ġamounts": 5147,
      "Ġrecognition": 5148,
      "ĠTim": 5149,
      "Welcome": 5150,
      "Ġdiscovery": 5151,
      "ĠThom": 5152,
      "Ġmer": 5153,
      "Ġcycle": 5154,
      "Ġtransportation": 5155,
      "alk": 5156,
      "ĠJournal": 5157,
      "Ġgene": 5158,
      "Ġcustomers": 5159,
      "Ġfinally": 5160,
      "Ġlegis": 5161,
      "ultaneously": 5162,
      "Ġath": 5163,
      "ĠKey": 5164,
      "Ġpracticing": 5165,
      "Ġemployees": 5166,
      "Ġhuge": 5167,
      "Ġdescribe": 5168,
      "orking": 5169,
      "ĠAmong": 5170,
      "icit": 5171,
      "ĠSept": 5172,
      "met": 5173,
      "Ġwondered": 5174,
      "Ġcomplexity": 5175,
      "ĠAlice": 5176,
      "urd": 5177,
      "Ġpreferences": 5178,
      "plicated": 5179,
      "asure": 5180,
      "Ġsudden": 5181,
      "leg": 5182,
      "Ġdrive": 5183,
      "ratic": 5184,
      "Ġeight": 5185,
      "Ġconflicts": 5186,
      "Ġmillions": 5187,
      "nect": 5188,
      "ags": 5189,
      "Ġmachines": 5190,
      "Ġ60": 5191,
      "Ġment": 5192,
      "Ġtaste": 5193,
      "Ġdemonstrate": 5194,
      "alt": 5195,
      "ĠFood": 5196,
      "Ġtraffic": 5197,
      "section": 5198,
      "Ġaffects": 5199,
      "Ġcompassion": 5200,
      "Ġstruggle": 5201,
      "Ġclearly": 5202,
      "anguage": 5203,
      "Ġideal": 5204,
      "enth": 5205,
      "ĠWhe": 5206,
      "Ġoxygen": 5207,
      "Ġmeat": 5208,
      "Ġhealing": 5209,
      "Ġmoments": 5210,
      "ashington": 5211,
      "Ġimmig": 5212,
      "ĠAD": 5213,
      "Ġshowc": 5214,
      "orge": 5215,
      "ĠLeg": 5216,
      "ams": 5217,
      "Ġnorth": 5218,
      "PS": 5219,
      "aj": 5220,
      "Ġunits": 5221,
      "Ġamb": 5222,
      "Ġcul": 5223,
      "Ġyouth": 5224,
      "nam": 5225,
      "Ġocean": 5226,
      "Ġinteraction": 5227,
      "Ġparticles": 5228,
      "Ġhabits": 5229,
      "Ġwait": 5230,
      "Ġsustainability": 5231,
      "Ġarts": 5232,
      "ĠApril": 5233,
      "py": 5234,
      "Ġlooks": 5235,
      "Ġrapidly": 5236,
      "ras": 5237,
      "Ġreplace": 5238,
      "Ġproperly": 5239,
      "Ġoffered": 5240,
      "ĠPublic": 5241,
      "ĠNum": 5242,
      "ĠCap": 5243,
      "itc": 5244,
      "Ġconfidence": 5245,
      "ĠCle": 5246,
      "Ġhelpful": 5247,
      "Ġinsect": 5248,
      "ifications": 5249,
      "',": 5250,
      "des": 5251,
      "Ġpal": 5252,
      "Ġgar": 5253,
      "ĠRet": 5254,
      "ondon": 5255,
      "Some": 5256,
      "$$": 5257,
      "vis": 5258,
      "ford": 5259,
      "Ġinterested": 5260,
      "char": 5261,
      "Ġconducted": 5262,
      "Ġchurch": 5263,
      "Ġreson": 5264,
      "aughter": 5265,
      "iest": 5266,
      "Ġoffic": 5267,
      "Ġnoticed": 5268,
      "iate": 5269,
      "holders": 5270,
      "Ġreports": 5271,
      "ĠSol": 5272,
      "ĠGreen": 5273,
      "Ġrul": 5274,
      "AM": 5275,
      "Ġwalk": 5276,
      "Ġrobust": 5277,
      "ersonal": 5278,
      "Ġsouth": 5279,
      "Ġcommitment": 5280,
      "Ġcorpor": 5281,
      "Ġoffice": 5282,
      "Ġlots": 5283,
      "Ġemail": 5284,
      "Ġdri": 5285,
      "ĠClass": 5286,
      "za": 5287,
      "Ġantib": 5288,
      "Ġpreviously": 5289,
      "men": 5290,
      "70": 5291,
      "ĠUnion": 5292,
      "Ġoperating": 5293,
      "Ġprogramming": 5294,
      "Ġempower": 5295,
      "gment": 5296,
      "Ġkid": 5297,
      "Ġpsychological": 5298,
      "world": 5299,
      "Ġcombination": 5300,
      "ĠExper": 5301,
      "Ġpollution": 5302,
      "Ġaudience": 5303,
      "Ġprepare": 5304,
      "Ġslightly": 5305,
      "Ġcraf": 5306,
      "Ġanalyzing": 5307,
      "AD": 5308,
      "Ġdiss": 5309,
      "Ġapart": 5310,
      "ressed": 5311,
      "Ġcombined": 5312,
      "Ġasp": 5313,
      "Key": 5314,
      "olute": 5315,
      "Ġintrig": 5316,
      "Ġoperation": 5317,
      "------------": 5318,
      "Ġreference": 5319,
      "Ġfollows": 5320,
      "Ġsensitive": 5321,
      "rog": 5322,
      "Ġwriters": 5323,
      "uracy": 5324,
      ");": 5325,
      "Ġign": 5326,
      "Ġmagical": 5327,
      "itudes": 5328,
      "29": 5329,
      "Ġriver": 5330,
      "Ġaffecting": 5331,
      "Com": 5332,
      "ĠStudy": 5333,
      "Ġfrequency": 5334,
      "Ġflowers": 5335,
      "Ġinspire": 5336,
      "Ġdocuments": 5337,
      "ĠArch": 5338,
      "Ġtechnical": 5339,
      "emy": 5340,
      "opy": 5341,
      "Ġphase": 5342,
      "Ġcurric": 5343,
      "ĠFinally": 5344,
      "Ġliquid": 5345,
      "SD": 5346,
      "Ġgod": 5347,
      "Ġfocuses": 5348,
      "Ġnotable": 5349,
      "ĠSpanish": 5350,
      "Ġcovered": 5351,
      "ycl": 5352,
      "prise": 5353,
      "Ġmoral": 5354,
      "Ġvolume": 5355,
      "cil": 5356,
      "Ġassistance": 5357,
      "empl": 5358,
      "Lesson": 5359,
      "Ġgave": 5360,
      "Ġshar": 5361,
      "Ġstatement": 5362,
      "ĠMean": 5363,
      "Ġfacilitate": 5364,
      "Ġconventional": 5365,
      "Ġnorms": 5366,
      "overty": 5367,
      "Ġinjury": 5368,
      "ourses": 5369,
      "ĠOut": 5370,
      "Ġphone": 5371,
      "Ġadvantages": 5372,
      "Ġappearance": 5373,
      "ĠAsia": 5374,
      "Ġround": 5375,
      "Ġpossibilities": 5376,
      "ĠMaybe": 5377,
      "Ġmotion": 5378,
      "Ġreferred": 5379,
      "Ġneighbor": 5380,
      "ij": 5381,
      "Ġappears": 5382,
      "Ġjobs": 5383,
      "Ġarticles": 5384,
      "Ġtaught": 5385,
      "Ġlabel": 5386,
      "Ġrelatively": 5387,
      "aming": 5388,
      "Ġstake": 5389,
      "Ġexistence": 5390,
      "ville": 5391,
      "ĠCommon": 5392,
      "Ġlinked": 5393,
      "ET": 5394,
      "Ġwalking": 5395,
      "ĠBas": 5396,
      "Ġves": 5397,
      "ĠMal": 5398,
      "Ġdecide": 5399,
      "Ġremarkable": 5400,
      "Ġbow": 5401,
      "uls": 5402,
      "ĠBecause": 5403,
      "itors": 5404,
      "mark": 5405,
      "Ġhttp": 5406,
      "Ġresist": 5407,
      "ĠCOVID": 5408,
      "orrow": 5409,
      "Ġabuse": 5410,
      "ĠPower": 5411,
      "ĠĠĠĠĠĠĠĠ": 5412,
      "Ġconversation": 5413,
      "Ġfrag": 5414,
      "Cl": 5415,
      "ĠFound": 5416,
      "Ġadvice": 5417,
      "Ġancest": 5418,
      "Ġtrain": 5419,
      "ĠPhys": 5420,
      "Ġwaiting": 5421,
      "Ġic": 5422,
      "Ġhearing": 5423,
      "ĠTre": 5424,
      "Ġadvantage": 5425,
      "ĠJuly": 5426,
      "ĠLike": 5427,
      "ĠStr": 5428,
      "ĠConsequently": 5429,
      "Example": 5430,
      "ĠNet": 5431,
      "Ġanswers": 5432,
      "Ġdrop": 5433,
      "Ġspeaking": 5434,
      "Ġsalt": 5435,
      "part": 5436,
      "They": 5437,
      "Ġshowing": 5438,
      "Ġbone": 5439,
      "26": 5440,
      "Ġfirm": 5441,
      "mic": 5442,
      "Ġimprovement": 5443,
      "Ġmotor": 5444,
      "Ġeggs": 5445,
      "Ġmeals": 5446,
      "cember": 5447,
      "Ġmyster": 5448,
      "Ġinterview": 5449,
      "ĠMor": 5450,
      "Ġremote": 5451,
      "Ġnutrients": 5452,
      "Ġcomfortable": 5453,
      "Ġarm": 5454,
      "Ġrecommended": 5455,
      "Ġdriving": 5456,
      "Ġthin": 5457,
      "Ġdatab": 5458,
      "Ġwhenever": 5459,
      "AP": 5460,
      "Ġeast": 5461,
      "Ġaccompl": 5462,
      "Ġelectrical": 5463,
      "ĠBel": 5464,
      "Ġ23": 5465,
      "arity": 5466,
      "Ġvs": 5467,
      "________": 5468,
      "nected": 5469,
      "Ġartificial": 5470,
      "Sp": 5471,
      "ĠAustralia": 5472,
      "Ġdiscrimination": 5473,
      "Ġfocusing": 5474,
      "Ġshop": 5475,
      "Ġinvent": 5476,
      "Ġencount": 5477,
      "roup": 5478,
      "Ġcaptivating": 5479,
      "ĠHouse": 5480,
      "Ġwear": 5481,
      "ĠWork": 5482,
      "Ġfarmers": 5483,
      "Ġopening": 5484,
      "Ġrom": 5485,
      "Ġsole": 5486,
      "Ġkinds": 5487,
      "Ġtum": 5488,
      "idents": 5489,
      "Ġdied": 5490,
      "Ġwaves": 5491,
      "anted": 5492,
      "mas": 5493,
      "Ġrely": 5494,
      "ĠInf": 5495,
      "Ġdim": 5496,
      "Ġformat": 5497,
      "Ġlifesty": 5498,
      "oma": 5499,
      "Ġvariables": 5500,
      "Ġclim": 5501,
      "Ġhumanity": 5502,
      "Ġthreats": 5503,
      "ĠTwo": 5504,
      "Ġafford": 5505,
      "roy": 5506,
      "ĠImp": 5507,
      "ĠWashington": 5508,
      "Ġdangerous": 5509,
      "Res": 5510,
      "hand": 5511,
      "Ġidentities": 5512,
      "Ġprices": 5513,
      "ĠLatin": 5514,
      "ĠBi": 5515,
      "Ġbrings": 5516,
      "Ġbillion": 5517,
      "Ġhandle": 5518,
      "Ġstages": 5519,
      "Ġconv": 5520,
      "Ġparticipate": 5521,
      "Ġreb": 5522,
      "ordinary": 5523,
      "Ġbrief": 5524,
      "Ġarchitecture": 5525,
      "Ġsell": 5526,
      "Ġcars": 5527,
      "imal": 5528,
      "Ġsquare": 5529,
      "Ġstability": 5530,
      "Ġcolumn": 5531,
      "Ġstorytelling": 5532,
      "Ġinstructions": 5533,
      "stood": 5534,
      "Ġhit": 5535,
      "Ġauthority": 5536,
      "Ġtales": 5537,
      "Ġproteins": 5538,
      "Ġexplored": 5539,
      "ctor": 5540,
      "Ġwall": 5541,
      "Ġtouch": 5542,
      "Ġmoist": 5543,
      "Ġmaintenance": 5544,
      "Ġbarriers": 5545,
      "Ġ2008": 5546,
      "\",": 5547,
      "ĠUlt": 5548,
      "ovember": 5549,
      "Ġselection": 5550,
      "Ġprompt": 5551,
      "Ġsymbols": 5552,
      ".'": 5553,
      "lines": 5554,
      "Ġconscious": 5555,
      "28": 5556,
      "Ġmanufacture": 5557,
      "Ġdoctors": 5558,
      "Ġcharge": 5559,
      "OS": 5560,
      "ĠSan": 5561,
      "Ġcharacterized": 5562,
      "Ġbreast": 5563,
      "Ġalgorithms": 5564,
      "ĠDel": 5565,
      "Ġfluid": 5566,
      "Ġ2018": 5567,
      "ĠKnow": 5568,
      "Ġbottom": 5569,
      "Ġmatrix": 5570,
      "Ġrecovery": 5571,
      "Ġcontributing": 5572,
      "Ġrequiring": 5573,
      "Ġconsists": 5574,
      "ipping": 5575,
      "Ġarrange": 5576,
      "Ġcopy": 5577,
      "Ġinner": 5578,
      "Ġmoved": 5579,
      "ĠLondon": 5580,
      "Ġorigin": 5581,
      "Ġemployed": 5582,
      "Ġvictim": 5583,
      "Ġsweet": 5584,
      "Throughout": 5585,
      "Ġspend": 5586,
      "Ġperce": 5587,
      "27": 5588,
      "eless": 5589,
      "Ġstarts": 5590,
      "ĠUK": 5591,
      "agers": 5592,
      "Ġhyper": 5593,
      "Ġmuscles": 5594,
      "Ġnavigating": 5595,
      "lick": 5596,
      "Ġsurvival": 5597,
      "crib": 5598,
      "Our": 5599,
      "Ġindustries": 5600,
      "coming": 5601,
      "Ġsimpl": 5602,
      "ĠFe": 5603,
      "ĠModern": 5604,
      "asy": 5605,
      "ĠBob": 5606,
      "Ġban": 5607,
      "Ġflat": 5608,
      "ĠAssociation": 5609,
      "obal": 5610,
      "Ġminimize": 5611,
      "Ġacts": 5612,
      "Ġcredit": 5613,
      "Ġintellectual": 5614,
      "pet": 5615,
      "Ġadequ": 5616,
      "ĠBudd": 5617,
      "Ġsimultaneously": 5618,
      "lig": 5619,
      "ĠCreat": 5620,
      "Ġbudget": 5621,
      "ĠFin": 5622,
      "Ġminds": 5623,
      "Ġproposed": 5624,
      "Ġpip": 5625,
      "Ġperformed": 5626,
      "ĠPal": 5627,
      "Ġreduction": 5628,
      "Ġentertain": 5629,
      "acles": 5630,
      "ĠJanuary": 5631,
      "riage": 5632,
      "eding": 5633,
      "Ġframework": 5634,
      "exts": 5635,
      "arsh": 5636,
      "Ġradiation": 5637,
      "venile": 5638,
      "Ġdogs": 5639,
      "Ġsuccessfully": 5640,
      "Ġ2009": 5641,
      "Ġcapture": 5642,
      "Ġoverl": 5643,
      "Ġsides": 5644,
      "ĠSecond": 5645,
      "Ġhorm": 5646,
      "Ġinspiration": 5647,
      "ĠHol": 5648,
      "Ġjoy": 5649,
      "ashion": 5650,
      "Ġincorporate": 5651,
      "Ġsche": 5652,
      "Ġdispar": 5653,
      "Ġvehicles": 5654,
      "Ġdefinition": 5655,
      "Ġfailure": 5656,
      "....": 5657,
      "Ġtreated": 5658,
      "ĠNative": 5659,
      "Ġpand": 5660,
      "Ġ2017": 5661,
      "Ġdiscussed": 5662,
      "Ġphr": 5663,
      "Ġsurpris": 5664,
      "Ġaccounts": 5665,
      "oding": 5666,
      "Ġther": 5667,
      "Ġinstruction": 5668,
      "Ġseemingly": 5669,
      "Ġcere": 5670,
      "ĠSy": 5671,
      "Ġmarginal": 5672,
      "ĠPort": 5673,
      "flow": 5674,
      "Ġvessel": 5675,
      "ĠSeptember": 5676,
      "33": 5677,
      "Ġsamples": 5678,
      "ĠProgram": 5679,
      "Ġfeels": 5680,
      "Ġradio": 5681,
      "Ġlandscapes": 5682,
      "Ġnuclear": 5683,
      "ĠReal": 5684,
      "Ġremained": 5685,
      "Ġnegot": 5686,
      "ĠStudies": 5687,
      "gi": 5688,
      "ĠAut": 5689,
      "Ġextraordinary": 5690,
      "Ġbright": 5691,
      "Ġusage": 5692,
      "Ġdetermined": 5693,
      "ĠTechnology": 5694,
      "lege": 5695,
      "Ġmajority": 5696,
      "compass": 5697,
      "ĠDirect": 5698,
      "Ġtransp": 5699,
      "Ġfiles": 5700,
      "Ġmaximum": 5701,
      "ulf": 5702,
      "Ġteams": 5703,
      "Ġwitness": 5704,
      "Ġcountless": 5705,
      "itution": 5706,
      "Ġdance": 5707,
      "Ġintroduce": 5708,
      "Ġimplementation": 5709,
      "ĠAnother": 5710,
      "ĠDiff": 5711,
      "Ġpark": 5712,
      "eal": 5713,
      "Ġapplying": 5714,
      "Ġcompetition": 5715,
      "erent": 5716,
      "ĠCurrent": 5717,
      "ĠEst": 5718,
      "fortunately": 5719,
      "Ġcontinuous": 5720,
      "ĠProfess": 5721,
      "ĠFeb": 5722,
      "Ġimpl": 5723,
      "active": 5724,
      "Ġwants": 5725,
      "ĠJames": 5726,
      "ĠGeneral": 5727,
      "lessly": 5728,
      "ĠVis": 5729,
      "Ġadap": 5730,
      "Ġbank": 5731,
      "Ġcarried": 5732,
      "atric": 5733,
      "Ġoral": 5734,
      "Ġwhereas": 5735,
      "Ġnerv": 5736,
      "ĠForm": 5737,
      "Ġpray": 5738,
      "ptions": 5739,
      "Ġviews": 5740,
      "Acc": 5741,
      "ship": 5742,
      "Ġqual": 5743,
      "ĠTur": 5744,
      "Ġdishes": 5745,
      "ĠÃ": 5746,
      "Ġaccuracy": 5747,
      "Ġtens": 5748,
      "ĠOctober": 5749,
      "Ġtransition": 5750,
      "itivity": 5751,
      "That": 5752,
      "ĠMary": 5753,
      "Ġpartnership": 5754,
      "ologist": 5755,
      "otes": 5756,
      "ĠSociety": 5757,
      "ĠLa": 5758,
      "Ġfeat": 5759,
      "Ġholds": 5760,
      "Ġpatience": 5761,
      "Ġexpressions": 5762,
      "Be": 5763,
      "Ġshift": 5764,
      "plot": 5765,
      "Ġflood": 5766,
      "Ġelectronic": 5767,
      "Rem": 5768,
      "Ġforget": 5769,
      "ĠGoogle": 5770,
      "Ġemotion": 5771,
      "Ġeducators": 5772,
      "Ġinfluences": 5773,
      "Ġcontributions": 5774,
      "Ġdelicious": 5775,
      "ĠChildren": 5776,
      "ĠKore": 5777,
      "Ġinterventions": 5778,
      "wood": 5779,
      "Ġseven": 5780,
      "Ġotherwise": 5781,
      "Ġaf": 5782,
      "Ġbiological": 5783,
      "Ġmutual": 5784,
      "Ġdemonstrated": 5785,
      "ait": 5786,
      "Ġ195": 5787,
      "Ġreserv": 5788,
      "Ġconsideration": 5789,
      "gra": 5790,
      "acking": 5791,
      "ĠCounty": 5792,
      "Ġmarked": 5793,
      "Ġdisapp": 5794,
      "Ġimplementing": 5795,
      "Ġexpertise": 5796,
      "Ġmyth": 5797,
      "ĠHistorical": 5798,
      "ressing": 5799,
      "Ġagriculture": 5800,
      "down": 5801,
      "Ġwarn": 5802,
      "Ġraw": 5803,
      "ĠDem": 5804,
      "erative": 5805,
      "].": 5806,
      "Ġdevelopments": 5807,
      "Ġleader": 5808,
      "Ġsignals": 5809,
      "Ġhighest": 5810,
      "Ġax": 5811,
      "Ġabsorb": 5812,
      "Ġmanaged": 5813,
      "Ġprotecting": 5814,
      "Ġmarkets": 5815,
      "roc": 5816,
      "Ġevaluate": 5817,
      "Ġwildlife": 5818,
      "Ġpractition": 5819,
      "Ġrecognizing": 5820,
      "Ġtun": 5821,
      "SA": 5822,
      "Ġregul": 5823,
      "Ġcategories": 5824,
      "Ġbonds": 5825,
      "Ġnurs": 5826,
      "Ġcatch": 5827,
      "Ġcomposition": 5828,
      "ĠProject": 5829,
      "Ġsurgery": 5830,
      "ĠEconom": 5831,
      "Ġparalle": 5832,
      "Ġencompass": 5833,
      "Ġwalls": 5834,
      "Ġseemed": 5835,
      "Ġmort": 5836,
      "Ġelev": 5837,
      "Ġaudiences": 5838,
      "ĠSaf": 5839,
      "Ġinsurance": 5840,
      "Ġconcerning": 5841,
      "def": 5842,
      "ĠPers": 5843,
      "ĠFore": 5844,
      "Ġreached": 5845,
      "ĠSun": 5846,
      "Ġintroduction": 5847,
      "Ġlens": 5848,
      "Ġmast": 5849,
      "Ġshel": 5850,
      "Ġencouraging": 5851,
      "Ġconnecting": 5852,
      "Ġdepth": 5853,
      "Ġpoverty": 5854,
      "Ġgrass": 5855,
      "Ġbird": 5856,
      "Ġboost": 5857,
      "Ġmitig": 5858,
      "tering": 5859,
      "ĠExploring": 5860,
      "olit": 5861,
      "Ġregardless": 5862,
      "rity": 5863,
      "Ġserving": 5864,
      "Ġconsumers": 5865,
      "Ġ2019": 5866,
      "Ġspring": 5867,
      "Ġhoriz": 5868,
      "Ġcert": 5869,
      "cel": 5870,
      "ĠMa": 5871,
      "Ġreaction": 5872,
      "ĠST": 5873,
      "aturally": 5874,
      "Ġstands": 5875,
      "Ġspl": 5876,
      "ĠInternet": 5877,
      "Ġthanks": 5878,
      "Ġfacilities": 5879,
      "Ġdouble": 5880,
      "Ġbegins": 5881,
      "All": 5882,
      "Ġdomestic": 5883,
      "ĠMet": 5884,
      "Ġ26": 5885,
      "Ġathlet": 5886,
      "Ġphilosophy": 5887,
      "35": 5888,
      "Ġreleased": 5889,
      "Ġchemicals": 5890,
      "otal": 5891,
      "Ġcapabilities": 5892,
      "Ġformal": 5893,
      "ĠNon": 5894,
      "Ġgently": 5895,
      "mp": 5896,
      "Ġefficiently": 5897,
      "rolog": 5898,
      "Ġunders": 5899,
      "Ġauthentic": 5900,
      "Ġartist": 5901,
      "Ġdoub": 5902,
      "Ġfib": 5903,
      "Ġmanufacturing": 5904,
      "Ġraised": 5905,
      "Ġdegrees": 5906,
      "Ġindex": 5907,
      "mation": 5908,
      "Ġdealing": 5909,
      "ĠMicro": 5910,
      "Ġ2000": 5911,
      "Ġuns": 5912,
      "Ġdemands": 5913,
      "Ġsuggested": 5914,
      "ĠIsland": 5915,
      "Despite": 5916,
      "Ġlic": 5917,
      "Ġargument": 5918,
      "eff": 5919,
      "Ġlocations": 5920,
      "Ġtransformation": 5921,
      "Ġannual": 5922,
      "Ġgenes": 5923,
      "Ġ28": 5924,
      "Ġchain": 5925,
      "gin": 5926,
      "Ġethnic": 5927,
      "Ġ<": 5928,
      "yt": 5929,
      "Ġintended": 5930,
      "othe": 5931,
      "ĠSch": 5932,
      "Ġrural": 5933,
      "ĠDecember": 5934,
      "Ġengaged": 5935,
      "Ġvariable": 5936,
      "Ġsurvey": 5937,
      "vance": 5938,
      "Ġcrim": 5939,
      "Ġroutine": 5940,
      "Ġlung": 5941,
      "ault": 5942,
      "stract": 5943,
      "Ġclients": 5944,
      "Ġguess": 5945,
      "ivery": 5946,
      "Ġtried": 5947,
      "Ġtells": 5948,
      "))": 5949,
      "ĠPost": 5950,
      "Ġhospital": 5951,
      "ographical": 5952,
      "bi": 5953,
      "Ġexplo": 5954,
      "osa": 5955,
      "ĠStand": 5956,
      "lease": 5957,
      "Ġconvey": 5958,
      "eut": 5959,
      "Ġturns": 5960,
      "Ġintegration": 5961,
      "ĠPsych": 5962,
      "Ġindicate": 5963,
      "Ġpreserve": 5964,
      "ĠWeb": 5965,
      "fit": 5966,
      "Ġselected": 5967,
      "Ġattend": 5968,
      "Ġreform": 5969,
      "Ġvoc": 5970,
      "Ġbattle": 5971,
      "arant": 5972,
      "Ġinitially": 5973,
      "Ġinclusive": 5974,
      "iability": 5975,
      "Ġuniverse": 5976,
      "Ġrow": 5977,
      "ĠAir": 5978,
      "Ġidentifying": 5979,
      "MS": 5980,
      "Ġcoin": 5981,
      "Ġextremely": 5982,
      "eries": 5983,
      "Ġstorm": 5984,
      "Ġcontrolled": 5985,
      "ruary": 5986,
      "Ġspecialized": 5987,
      "ĠMem": 5988,
      "Ġbeings": 5989,
      "Ġentirely": 5990,
      "acies": 5991,
      "Ġscene": 5992,
      "Ġheavily": 5993,
      "Ġcolonial": 5994,
      "ndrome": 5995,
      "cies": 5996,
      "Ġimmun": 5997,
      "Ġhaz": 5998,
      "Ġqualities": 5999,
      "add": 6000,
      "Ġsolving": 6001,
      "],": 6002,
      "Ġproviders": 6003,
      "ĠMich": 6004,
      "From": 6005,
      "ĠAtt": 6006,
      "astly": 6007,
      "ĠSl": 6008,
      "90": 6009,
      "Ġinfections": 6010,
      "eterm": 6011,
      "ald": 6012,
      "ansion": 6013,
      "free": 6014,
      "RE": 6015,
      "ĠBefore": 6016,
      "Ġstanding": 6017,
      "utive": 6018,
      "ĠBible": 6019,
      "ician": 6020,
      "Ġcontexts": 6021,
      "ĠVol": 6022,
      "ĠCentral": 6023,
      "usiness": 6024,
      "ĠProv": 6025,
      "Ġshed": 6026,
      "Ġtow": 6027,
      "Ġsector": 6028,
      "Ġpuzz": 6029,
      "Ġmemories": 6030,
      "ĠCollege": 6031,
      "Ġdifferently": 6032,
      "whel": 6033,
      "ii": 6034,
      "ek": 6035,
      "min": 6036,
      "Ġphotos": 6037,
      "Ġ22": 6038,
      "Ġmixed": 6039,
      "unning": 6040,
      "Ġseeing": 6041,
      "Ġracial": 6042,
      "Ġtheore": 6043,
      "ĠAnalysis": 6044,
      "Ġorganized": 6045,
      "Pl": 6046,
      "Ġpowers": 6047,
      "from": 6048,
      "Ġslowly": 6049,
      "ĠTreat": 6050,
      "ĠBet": 6051,
      "roid": 6052,
      "throp": 6053,
      "Ġseed": 6054,
      "Ġsky": 6055,
      "ĠUN": 6056,
      "Ġmood": 6057,
      "ĠDist": 6058,
      "erb": 6059,
      "Ġfort": 6060,
      "using": 6061,
      "lights": 6062,
      "Ġuncertain": 6063,
      "Ġmanif": 6064,
      "roduct": 6065,
      "Ġintercon": 6066,
      "ascular": 6067,
      "Ġyield": 6068,
      "Ġclaims": 6069,
      "Ġgrade": 6070,
      "Ġsought": 6071,
      "racy": 6072,
      "ĠElect": 6073,
      "rin": 6074,
      "well": 6075,
      "Ġerror": 6076,
      "Ġstem": 6077,
      "norm": 6078,
      "Ġmobile": 6079,
      "stream": 6080,
      "Ġescap": 6081,
      "Ġupper": 6082,
      "Ġinequ": 6083,
      "Ġunderstood": 6084,
      "Ġacknowled": 6085,
      "ĠCivil": 6086,
      "Ġfunctional": 6087,
      "Ġrestrict": 6088,
      "âĢĿ,": 6089,
      "ĠArab": 6090,
      "Ġvehicle": 6091,
      "Ġjoint": 6092,
      "ridge": 6093,
      "Ġdin": 6094,
      "uis": 6095,
      "ĠNovember": 6096,
      "ĠIS": 6097,
      "Ġrecognized": 6098,
      "Ġ27": 6099,
      "Ġmathematical": 6100,
      "Ġpainting": 6101,
      "Ġod": 6102,
      "Ġhttps": 6103,
      "ĠCongress": 6104,
      "Ġreactions": 6105,
      "writ": 6106,
      "estion": 6107,
      "Ġstrategic": 6108,
      "Ġsubstance": 6109,
      "Ġcandid": 6110,
      "isp": 6111,
      "Ġ2007": 6112,
      "Ġship": 6113,
      "Ġsessions": 6114,
      "Ġtailored": 6115,
      "Ġinjuries": 6116,
      "ari": 6117,
      "Ġcloud": 6118,
      "ĠCoun": 6119,
      "Ġgrew": 6120,
      "ffective": 6121,
      "friend": 6122,
      "Ġwise": 6123,
      "Ġinstances": 6124,
      "Ġwire": 6125,
      "Ġturning": 6126,
      "nel": 6127,
      "Ġtit": 6128,
      "ya": 6129,
      "asive": 6130,
      "Ġstret": 6131,
      "Ġpretty": 6132,
      "Ġexposed": 6133,
      "En": 6134,
      "Ġdro": 6135,
      "ĠEth": 6136,
      "anged": 6137,
      "Ġcontributes": 6138,
      "abul": 6139,
      "Ġsick": 6140,
      "Ġderived": 6141,
      "CO": 6142,
      "Ġcomplicated": 6143,
      "Ġsupports": 6144,
      "ĠExp": 6145,
      "vity": 6146,
      "Ġmusical": 6147,
      "Ġstars": 6148,
      "Ġyellow": 6149,
      "Ġmeal": 6150,
      "arr": 6151,
      "Ġbutter": 6152,
      "ĠMin": 6153,
      "Many": 6154,
      "Ġproducing": 6155,
      "Ġvolunte": 6156,
      "ĠOld": 6157,
      "itative": 6158,
      "lers": 6159,
      "Ġforced": 6160,
      "Ġaims": 6161,
      "Ġprotocol": 6162,
      "ĠApplic": 6163,
      "Ġsort": 6164,
      "Ġtooth": 6165,
      "Ġdatas": 6166,
      "celer": 6167,
      "icking": 6168,
      "rot": 6169,
      "Ġtack": 6170,
      "Ġsend": 6171,
      "Ġprevention": 6172,
      "rus": 6173,
      "Ġvoices": 6174,
      "Ġcollected": 6175,
      "Ġresidents": 6176,
      "Ġstrict": 6177,
      "ĠFact": 6178,
      "Ġscenarios": 6179,
      "Ġisland": 6180,
      "ĠRussia": 6181,
      "Ġmonitor": 6182,
      "ena": 6183,
      "45": 6184,
      "Ġcos": 6185,
      "sequent": 6186,
      "ĠLiter": 6187,
      "neys": 6188,
      "icks": 6189,
      "Ġcrisis": 6190,
      "ĠâĢ¢": 6191,
      "Ġsuffering": 6192,
      "Ġedge": 6193,
      "Ġtheories": 6194,
      "Ġwave": 6195,
      "ĠMuslim": 6196,
      "Ġobjectives": 6197,
      "rants": 6198,
      "Ġblocks": 6199,
      "Ã¡": 6200,
      "Ġflour": 6201,
      "Ġgrown": 6202,
      "Ġparticipation": 6203,
      "amm": 6204,
      "ĠMain": 6205,
      "Ġsusp": 6206,
      "Ġhandling": 6207,
      "Ġband": 6208,
      "Ġwaters": 6209,
      "Ġweap": 6210,
      "Ġbrand": 6211,
      "ounced": 6212,
      "Ġdetermination": 6213,
      "Ġdiagnosis": 6214,
      "Ġlimitations": 6215,
      "ĠStrateg": 6216,
      "Activity": 6217,
      "ocking": 6218,
      "tra": 6219,
      "ĠEngine": 6220,
      "Ġtall": 6221,
      "Ġlingu": 6222,
      "Ġaccessible": 6223,
      "Ġreturns": 6224,
      "Ġnovels": 6225,
      "ĠUt": 6226,
      "ads": 6227,
      "Ġcream": 6228,
      "Ġvitamin": 6229,
      "ossible": 6230,
      "alse": 6231,
      "Ġdental": 6232,
      "Ġemergency": 6233,
      "Ġmassive": 6234,
      "ocation": 6235,
      "Ġstone": 6236,
      "Ġlatest": 6237,
      "uous": 6238,
      "Ġneut": 6239,
      "CC": 6240,
      "ĠAN": 6241,
      "Ġcalculate": 6242,
      "Ġstakeholders": 6243,
      "Ġdebates": 6244,
      "Us": 6245,
      "Ġraise": 6246,
      "Ġarrived": 6247,
      "Ġpoetry": 6248,
      "Ġshaped": 6249,
      "Ġgirls": 6250,
      "Ġattacks": 6251,
      "Ġsufficient": 6252,
      "Ġsnow": 6253,
      "Ġhour": 6254,
      "Ġevaluation": 6255,
      "Ġmainly": 6256,
      "Ġmorning": 6257,
      "100": 6258,
      "ĠWomen": 6259,
      "Ġmyst": 6260,
      "orders": 6261,
      "Ġcrops": 6262,
      "otypes": 6263,
      "Ġprocedure": 6264,
      "Ġinhab": 6265,
      "ĠÎ": 6266,
      "Ġtransact": 6267,
      "Ġ80": 6268,
      "ĠEqu": 6269,
      "Ġsales": 6270,
      "ĠSal": 6271,
      "Ġresolution": 6272,
      "isation": 6273,
      "HE": 6274,
      "Ġcustomer": 6275,
      "ffee": 6276,
      "Ġcompos": 6277,
      "Next": 6278,
      "ĠQue": 6279,
      "Ġexists": 6280,
      "ĠGood": 6281,
      "ĠGet": 6282,
      "Ġreduces": 6283,
      "36": 6284,
      "ested": 6285,
      "ĠColl": 6286,
      "ĠEnvironmental": 6287,
      "Ġremaining": 6288,
      "Ġagricultural": 6289,
      "Ġconfident": 6290,
      "Ġperforming": 6291,
      "ĠGeorge": 6292,
      "Ġfriendly": 6293,
      "ĠLanguage": 6294,
      "Ġpositions": 6295,
      "Ġsummary": 6296,
      "ĠMexico": 6297,
      "Ġinstruments": 6298,
      "bor": 6299,
      "inity": 6300,
      "Ġreliable": 6301,
      "ĠCath": 6302,
      "Ġhappening": 6303,
      "Ġsupported": 6304,
      "Ġclothing": 6305,
      "Ġstruggles": 6306,
      "oves": 6307,
      "Ġunity": 6308,
      "ĠBritain": 6309,
      "resent": 6310,
      "lements": 6311,
      "Ġchildhood": 6312,
      "Ġdesigning": 6313,
      "Ġimper": 6314,
      "ĠLin": 6315,
      "igital": 6316,
      "Ġwet": 6317,
      "Ġcomprom": 6318,
      "ĠRepublic": 6319,
      "Ġargue": 6320,
      "hered": 6321,
      "umin": 6322,
      "Ġarise": 6323,
      "ĠPaul": 6324,
      "Ġstick": 6325,
      "rets": 6326,
      "ĠEnergy": 6327,
      "hist": 6328,
      "iform": 6329,
      "Ġcast": 6330,
      "Ġcompleted": 6331,
      "Ġobstacles": 6332,
      "Ġnan": 6333,
      "Ġwebsites": 6334,
      "onomic": 6335,
      "Ġwindow": 6336,
      "Ġprev": 6337,
      "ria": 6338,
      "mun": 6339,
      "ighter": 6340,
      "tee": 6341,
      "Ġconcentration": 6342,
      "Ġclick": 6343,
      "ĠCourt": 6344,
      "Ġestimated": 6345,
      "Ġtrauma": 6346,
      "Ġdimens": 6347,
      "gal": 6348,
      "Ġgraphic": 6349,
      "Ġpreparation": 6350,
      "acific": 6351,
      "Ġnaturally": 6352,
      "Ġdie": 6353,
      "Ġexplan": 6354,
      "Ġwel": 6355,
      "Ind": 6356,
      "Ġbrown": 6357,
      "Ġsurfaces": 6358,
      "75": 6359,
      "olf": 6360,
      "Ġindependence": 6361,
      "Ġcomment": 6362,
      "Ġmagic": 6363,
      "Ġchick": 6364,
      "ĠUltimately": 6365,
      "Ġsubstances": 6366,
      "Ġmetab": 6367,
      "Ġparameters": 6368,
      "Ġoverwhel": 6369,
      "39": 6370,
      "Ġlifestyle": 6371,
      "Ġrepresenting": 6372,
      "Ġneighborhood": 6373,
      "Ġflavor": 6374,
      "Ġengineers": 6375,
      "Ġwatching": 6376,
      "ĠRich": 6377,
      "Ġsequence": 6378,
      "Ġfeaturing": 6379,
      "Ġdut": 6380,
      "Ġnoise": 6381,
      "Ġcalls": 6382,
      "Ġmovie": 6383,
      "Ġinvestigation": 6384,
      "No": 6385,
      "Ġexcite": 6386,
      "Ġhabitat": 6387,
      "Ġlose": 6388,
      "Ġecosystems": 6389,
      "Ġdepends": 6390,
      "ida": 6391,
      "Ġaest": 6392,
      "Ġranging": 6393,
      "Ġdistingu": 6394,
      "ander": 6395,
      "Ġequality": 6396,
      "ĠSte": 6397,
      "Ġevolved": 6398,
      "Ġlib": 6399,
      "such": 6400,
      "Ġreflection": 6401,
      "Ġinfluenced": 6402,
      "Ġspark": 6403,
      "ums": 6404,
      "ĠSpace": 6405,
      "Ġmuseum": 6406,
      "asty": 6407,
      "clus": 6408,
      "Ġcombining": 6409,
      "inet": 6410,
      "Ġintegrating": 6411,
      "Ġplease": 6412,
      "Ġ2021": 6413,
      "pat": 6414,
      "ĠRights": 6415,
      "Ġvaccine": 6416,
      "Ġcyber": 6417,
      "Ġgent": 6418,
      "Ġdestroy": 6419,
      "ĠJud": 6420,
      "Ġstere": 6421,
      "ado": 6422,
      "Te": 6423,
      "Ġdivided": 6424,
      "Ġrub": 6425,
      "long": 6426,
      "Ġbrother": 6427,
      "ommod": 6428,
      "Ġtransmission": 6429,
      "Ġcardi": 6430,
      "ĠScient": 6431,
      "ĠConclusion": 6432,
      "Ġsocio": 6433,
      "Ġpig": 6434,
      "Ġagreed": 6435,
      "Ġholding": 6436,
      "Rec": 6437,
      "rons": 6438,
      "Ġcritically": 6439,
      "Ġsettle": 6440,
      "arness": 6441,
      "Ġdrinking": 6442,
      "ĠDoes": 6443,
      "ĠDavid": 6444,
      "Ġkept": 6445,
      "istan": 6446,
      "Ġmedications": 6447,
      "Ġpractitioners": 6448,
      "78": 6449,
      "Ġtoxic": 6450,
      "Ġclassic": 6451,
      "oples": 6452,
      "Ġexperiencing": 6453,
      "Ġoccurred": 6454,
      "Ġdelivery": 6455,
      "Ġconclud": 6456,
      "Ġimmers": 6457,
      "Ġmac": 6458,
      "Ġstored": 6459,
      "ĠMac": 6460,
      "Ġcustoms": 6461,
      "Ġpressing": 6462,
      "Ġbreathing": 6463,
      "ĠMax": 6464,
      "ĠEss": 6465,
      "Ġforming": 6466,
      "Ġgrab": 6467,
      "Ġunlike": 6468,
      "Ġdisrupt": 6469,
      "Ġfighting": 6470,
      "Ġcourses": 6471,
      "ago": 6472,
      "ĠMount": 6473,
      "ĠMedical": 6474,
      "Ġsubstantial": 6475,
      "Ġdoll": 6476,
      "espread": 6477,
      "Ġcelebrate": 6478,
      "alled": 6479,
      "Ġcomplexities": 6480,
      "Ġ2006": 6481,
      "erals": 6482,
      "ĠPlus": 6483,
      "dis": 6484,
      "name": 6485,
      "Ġconsumer": 6486,
      "prene": 6487,
      "Ġcoal": 6488,
      "Ġorganisms": 6489,
      "CT": 6490,
      "Ġtension": 6491,
      "gl": 6492,
      "Ġremoved": 6493,
      "Ġstrange": 6494,
      "Ġmostly": 6495,
      "ishes": 6496,
      "OT": 6497,
      "reprene": 6498,
      "Ġsubsequent": 6499,
      "Ġdrink": 6500,
      "ĠFre": 6501,
      "According": 6502,
      "Ġprominent": 6503,
      "unk": 6504,
      "Ġske": 6505,
      "umes": 6506,
      "Ġgenerated": 6507,
      "Ġexcessive": 6508,
      "EL": 6509,
      "Ġtheme": 6510,
      "inter": 6511,
      "ĠWhether": 6512,
      "Ġinstitution": 6513,
      "Ġtypical": 6514,
      "Ġrevealed": 6515,
      "ĠPractice": 6516,
      "Ġvulnerable": 6517,
      "Ġplate": 6518,
      "Ġfill": 6519,
      "Ġbeneficial": 6520,
      "Ġdu": 6521,
      "ĠFebruary": 6522,
      "ĠInformation": 6523,
      "point": 6524,
      "During": 6525,
      "Ġpreval": 6526,
      "Ġunw": 6527,
      "ĠLook": 6528,
      "ĠBC": 6529,
      "ĠWind": 6530,
      "Ġpresents": 6531,
      "ĠSign": 6532,
      "berg": 6533,
      "Ġdetailed": 6534,
      "ague": 6535,
      "Ġtut": 6536,
      "Ġinterconnected": 6537,
      "Ġallerg": 6538,
      "Ġflo": 6539,
      "Ġfulf": 6540,
      "Ġpolice": 6541,
      "oints": 6542,
      "Ġinflammation": 6543,
      "Ġeld": 6544,
      "Ġcomputing": 6545,
      "Ġorient": 6546,
      "Ġcurriculum": 6547,
      "Ġdetection": 6548,
      "Ġretain": 6549,
      "Ġ90": 6550,
      "Ġmarine": 6551,
      "ĠChristianity": 6552,
      "38": 6553,
      "Ġprivacy": 6554,
      "Ġcomprehension": 6555,
      "Ġlinks": 6556,
      "ĠEarly": 6557,
      "Ġcompare": 6558,
      "Ġ>": 6559,
      "Ġmixt": 6560,
      "Ġorigins": 6561,
      "Ġrecycl": 6562,
      "Ġsentence": 6563,
      "which": 6564,
      "ĠGovernment": 6565,
      "Remember": 6566,
      "Ġintent": 6567,
      "Ġattitudes": 6568,
      "Ġrhyth": 6569,
      "ĠAcad": 6570,
      "Ġpair": 6571,
      "Ġproport": 6572,
      "Ġstock": 6573,
      "Ġpreventing": 6574,
      "Ġmathematics": 6575,
      "hav": 6576,
      "Ġsupplies": 6577,
      "ĠImport": 6578,
      "lets": 6579,
      "Ġdrawn": 6580,
      "ĠImpact": 6581,
      "Ġsad": 6582,
      "ĠTV": 6583,
      "Ġsurve": 6584,
      "Ġfashion": 6585,
      "ĠBook": 6586,
      "eling": 6587,
      "isher": 6588,
      "Ġvariations": 6589,
      "?**": 6590,
      "rics": 6591,
      "ittle": 6592,
      "ĠHIV": 6593,
      "Ġundersc": 6594,
      "Ġwhom": 6595,
      "with": 6596,
      "uine": 6597,
      "Ġrepresented": 6598,
      "Ġforests": 6599,
      "Ġagreement": 6600,
      "that": 6601,
      "Ġwidespread": 6602,
      "atever": 6603,
      "ĠEv": 6604,
      "Ġspending": 6605,
      "inning": 6606,
      "Ġcrime": 6607,
      "Ġblog": 6608,
      "Ġarguments": 6609,
      "band": 6610,
      "chers": 6611,
      "Ġsizes": 6612,
      "Ġnor": 6613,
      "Ġtea": 6614,
      "Ġovercome": 6615,
      "Ġlibraries": 6616,
      "ĠBuilding": 6617,
      "Ġfunding": 6618,
      "uality": 6619,
      "Ġunus": 6620,
      "RI": 6621,
      "ione": 6622,
      "Ġadequate": 6623,
      "Ġlimits": 6624,
      "Ġtrip": 6625,
      "Ġsport": 6626,
      "Ġbread": 6627,
      "ceptions": 6628,
      "Ġfoss": 6629,
      "ĠDiv": 6630,
      "Ġagencies": 6631,
      "ape": 6632,
      "Ġenhanced": 6633,
      "Ġimmediate": 6634,
      "ien": 6635,
      "ĠAbout": 6636,
      "cal": 6637,
      "Ġexcitement": 6638,
      "Can": 6639,
      "Ġevolving": 6640,
      "ĠService": 6641,
      "Ġstation": 6642,
      "Ġaccident": 6643,
      "ĠWhite": 6644,
      "Ġdecor": 6645,
      "34": 6646,
      "Ġstudied": 6647,
      "Ġmarketing": 6648,
      "Ġsections": 6649,
      "Ġvarying": 6650,
      "Ġpresentation": 6651,
      "Ġalgorithm": 6652,
      "Ġreven": 6653,
      "Ġrough": 6654,
      "ĠOh": 6655,
      "lo": 6656,
      "Ġgeomet": 6657,
      "ĠRussian": 6658,
      "Ġsan": 6659,
      "Ġachieving": 6660,
      "Ġtraits": 6661,
      "ka": 6662,
      "Ġportion": 6663,
      "()`": 6664,
      "Ġactively": 6665,
      "ĠAdv": 6666,
      "Ġcollaborative": 6667,
      "Ġ2005": 6668,
      "oxide": 6669,
      "mod": 6670,
      "Ġprotected": 6671,
      "Ġcorner": 6672,
      "ĠIr": 6673,
      "Ġexcited": 6674,
      "Ġsoldiers": 6675,
      "Ġ70": 6676,
      "Ġhundreds": 6677,
      "itual": 6678,
      "Ġcoffee": 6679,
      "Ġfunds": 6680,
      "abulary": 6681,
      "indu": 6682,
      "Ġworksh": 6683,
      "Ġwouldn": 6684,
      "Ġpreparing": 6685,
      "Ġdoor": 6686,
      "Ġpsychology": 6687,
      "Ġpaid": 6688,
      "Ġstring": 6689,
      "Ġerrors": 6690,
      "Ġhighlighting": 6691,
      "Ġminimum": 6692,
      "Ġcup": 6693,
      "Ġbackgrounds": 6694,
      "roke": 6695,
      "Ġgrapp": 6696,
      "ears": 6697,
      "Ġextended": 6698,
      "Ġpromise": 6699,
      "ihood": 6700,
      "ĠTake": 6701,
      "ĠChall": 6702,
      "rays": 6703,
      "rian": 6704,
      "ĠLong": 6705,
      "Ġstreet": 6706,
      "Ġharmony": 6707,
      "Do": 6708,
      "Understanding": 6709,
      "atial": 6710,
      "Ġeffectiveness": 6711,
      "Ġcertainly": 6712,
      "spec": 6713,
      "Ġfewer": 6714,
      "Ġsecondary": 6715,
      "Ġdownload": 6716,
      "Ġpregnancy": 6717,
      "Ġdesire": 6718,
      "Ġtreating": 6719,
      "Ġflexibility": 6720,
      "ĠMart": 6721,
      "ĠSum": 6722,
      "Ġprinciple": 6723,
      "Ġachieved": 6724,
      "heast": 6725,
      "Ġcards": 6726,
      "inf": 6727,
      "arter": 6728,
      "Ġdiam": 6729,
      "DA": 6730,
      "ban": 6731,
      "ye": 6732,
      "cast": 6733,
      "ĠRober": 6734,
      "Ġgradually": 6735,
      "ĠMedicine": 6736,
      "alian": 6737,
      "Ġinterpretation": 6738,
      "ĠMuseum": 6739,
      "Ġyounger": 6740,
      "ĠSym": 6741,
      "Ġmedication": 6742,
      "ĠGlobal": 6743,
      "ION": 6744,
      "Ġnic": 6745,
      "ĠBre": 6746,
      "organ": 6747,
      "ava": 6748,
      "enny": 6749,
      "Ġstaying": 6750,
      "Ġtoys": 6751,
      "Ġtact": 6752,
      "ns": 6753,
      "Ġobservations": 6754,
      "ÃŃ": 6755,
      "Ġsolely": 6756,
      "ĠLord": 6757,
      "eutic": 6758,
      "Ġstructural": 6759,
      "ĠControl": 6760,
      "Ġphenomena": 6761,
      "Ġsunlight": 6762,
      "oral": 6763,
      "Ġtargeted": 6764,
      "rooms": 6765,
      "Ġpositively": 6766,
      "Ġhorse": 6767,
      "Ġlegacy": 6768,
      "ĠTex": 6769,
      "Ġsen": 6770,
      "hesis": 6771,
      "Ġflavors": 6772,
      "Ġinterf": 6773,
      "Ġvideos": 6774,
      "edge": 6775,
      "Ġreader": 6776,
      "Ġhousing": 6777,
      "Ġaccommod": 6778,
      "Ġprem": 6779,
      "Ġteen": 6780,
      "Ġque": 6781,
      "aker": 6782,
      "Ġcenters": 6783,
      "Ġdimensions": 6784,
      "Ġsteel": 6785,
      "Ġcriteria": 6786,
      "ĠInteg": 6787,
      "ĠSystems": 6788,
      "Ġlinear": 6789,
      "erge": 6790,
      "Ġconcrete": 6791,
      "ĠRevolution": 6792,
      "Ġdish": 6793,
      "Ġexperiments": 6794,
      "Ġnarrow": 6795,
      "Ġsatisf": 6796,
      "Ġjump": 6797,
      "Ġrelevance": 6798,
      "ĠCase": 6799,
      "Ġpartners": 6800,
      "Ġprove": 6801,
      "itz": 6802,
      "Ġagency": 6803,
      "65": 6804,
      "state": 6805,
      "eath": 6806,
      "Ġcultivate": 6807,
      "Re": 6808,
      "Ġadvances": 6809,
      "ĠPacific": 6810,
      "Ġmanner": 6811,
      "Ġmatch": 6812,
      ",'": 6813,
      "Ġelectron": 6814,
      "Ġclust": 6815,
      "Ġmeasured": 6816,
      "Ġadventures": 6817,
      "ĠLou": 6818,
      "Ġhighlights": 6819,
      "Ġnoted": 6820,
      "la": 6821,
      "Ġaqu": 6822,
      "Ġclub": 6823,
      "32": 6824,
      "Ġgenuine": 6825,
      "ĠHen": 6826,
      "Ġsouthern": 6827,
      "Ġalternatives": 6828,
      "Ġaccordingly": 6829,
      "uation": 6830,
      "forcement": 6831,
      "ĠFollow": 6832,
      "ca": 6833,
      "ĠMiss": 6834,
      "ĠShare": 6835,
      "wing": 6836,
      "Ġkill": 6837,
      "Ġfloor": 6838,
      "istical": 6839,
      "ĠUnder": 6840,
      "ictionary": 6841,
      "Ġindeed": 6842,
      "Ġherself": 6843,
      "quality": 6844,
      "Ġbiod": 6845,
      "Ġforth": 6846,
      "ĠAsian": 6847,
      "Ġchoosing": 6848,
      "Ġenthusi": 6849,
      "Ġdifficulties": 6850,
      "Ġpartner": 6851,
      "ĠCreate": 6852,
      "ĠYet": 6853,
      "Ġdebate": 6854,
      "Ġoperate": 6855,
      "oir": 6856,
      "Ġadoles": 6857,
      "Ġsuc": 6858,
      "Ġfantastic": 6859,
      "Ġthread": 6860,
      "ato": 6861,
      "omic": 6862,
      "Ġages": 6863,
      "hi": 6864,
      "ĠMag": 6865,
      "Ġtoler": 6866,
      "Ġtur": 6867,
      "izer": 6868,
      "Ġfaces": 6869,
      "Ġappeal": 6870,
      "Ġintense": 6871,
      "Ġadministration": 6872,
      "Ġemployment": 6873,
      "ecess": 6874,
      "37": 6875,
      "ĠEncourage": 6876,
      "Ġindicates": 6877,
      "Ġpropos": 6878,
      "Ġphenomenon": 6879,
      "dule": 6880,
      "ĠPC": 6881,
      "Ġauthorities": 6882,
      "rine": 6883,
      "Ġillustrate": 6884,
      "sts": 6885,
      "Ġmolecules": 6886,
      "df": 6887,
      "Ġampl": 6888,
      "Ġreput": 6889,
      "Ġtele": 6890,
      "field": 6891,
      "Ġnecessit": 6892,
      "Ġadopted": 6893,
      "Ġcurren": 6894,
      "Ġintegrity": 6895,
      "Ġseam": 6896,
      "ĠSupp": 6897,
      "ĠBat": 6898,
      "Ġacceler": 6899,
      "Ġtitle": 6900,
      "Ġdiving": 6901,
      "Ġgrasp": 6902,
      "ĠThomas": 6903,
      "Ġreaching": 6904,
      "Ġcontributed": 6905,
      "Ġregist": 6906,
      "Ġembrace": 6907,
      "Cont": 6908,
      "Ġgram": 6909,
      "ĠCouncil": 6910,
      "Ġobtained": 6911,
      "level": 6912,
      "Ġgenre": 6913,
      "Ġaccurately": 6914,
      "Americ": 6915,
      "Ġstable": 6916,
      "Ġfest": 6917,
      "Ġdensity": 6918,
      "Ġbattery": 6919,
      "ĠMult": 6920,
      "Ġlas": 6921,
      "unt": 6922,
      "Ġnarrative": 6923,
      "Ġassemb": 6924,
      "Ġcommitted": 6925,
      "Ġdescribes": 6926,
      "ĠDise": 6927,
      "Ġfiber": 6928,
      "eness": 6929,
      "Ġrecorded": 6930,
      "irt": 6931,
      "Ġassets": 6932,
      "Ġarms": 6933,
      "99": 6934,
      "Ġsched": 6935,
      "Ġcryst": 6936,
      "import": 6937,
      "Ġmagnetic": 6938,
      "New": 6939,
      "Ġholid": 6940,
      "oviet": 6941,
      "bran": 6942,
      "Ġpp": 6943,
      "Ġexpensive": 6944,
      "kin": 6945,
      "Ġexpansion": 6946,
      "Ġwonderful": 6947,
      "Ġfixed": 6948,
      "Äģ": 6949,
      "ĠBal": 6950,
      "GBT": 6951,
      "ĠComput": 6952,
      "Ġphysics": 6953,
      "Ġnit": 6954,
      "ĠNor": 6955,
      "Ġcontrovers": 6956,
      "Ġofficials": 6957,
      "Ġsoph": 6958,
      "`,": 6959,
      "ĠAccess": 6960,
      "Ġcombat": 6961,
      "Ġreturned": 6962,
      "ael": 6963,
      "Ġpil": 6964,
      "Ġintriguing": 6965,
      "print": 6966,
      "Ġmir": 6967,
      "Ġinspiring": 6968,
      "scale": 6969,
      "Ġpersonality": 6970,
      "Ġobjective": 6971,
      "ĠJews": 6972,
      "Ġdecrease": 6973,
      "ograp": 6974,
      "ĠBay": 6975,
      "ĠFind": 6976,
      "hend": 6977,
      "Ġbalanced": 6978,
      "found": 6979,
      "teries": 6980,
      "agues": 6981,
      "ĠWorks": 6982,
      "ishment": 6983,
      "Ġextent": 6984,
      "Ġclosed": 6985,
      "ĠRegular": 6986,
      "ĠList": 6987,
      "Ġfle": 6988,
      "Ġharvest": 6989,
      "Ġfold": 6990,
      "Ġnorthern": 6991,
      "ĠOpen": 6992,
      "Ġreflecting": 6993,
      "Ġoutl": 6994,
      "Ġproceed": 6995,
      "Ġperman": 6996,
      "bing": 6997,
      "ĠYOU": 6998,
      "Ġagents": 6999,
      "Ġaccum": 7000,
      "Ġhouses": 7001,
      "Ġautonom": 7002,
      "what": 7003,
      "bles": 7004,
      "Ġlaun": 7005,
      "ĠJer": 7006,
      "ĠNature": 7007,
      "Ġteachings": 7008,
      "ĠMeanwhile": 7009,
      "Ġinches": 7010,
      "ett": 7011,
      "ĠSen": 7012,
      "etics": 7013,
      "usc": 7014,
      "Ġran": 7015,
      "Ġshell": 7016,
      "ieties": 7017,
      "Ġdelves": 7018,
      "Ġproductivity": 7019,
      "Ġstrengths": 7020,
      "irus": 7021,
      "oting": 7022,
      "ĠReview": 7023,
      "Ġabsolute": 7024,
      "Ġregulation": 7025,
      "ĠProcess": 7026,
      "ĠCrit": 7027,
      "Ġworkshe": 7028,
      "ĠEmpire": 7029,
      "isk": 7030,
      "RO": 7031,
      "Ġmaps": 7032,
      "Although": 7033,
      "Ġcorrectly": 7034,
      "Ġobserve": 7035,
      "word": 7036,
      "Ġvisible": 7037,
      "overing": 7038,
      "egu": 7039,
      "oted": 7040,
      "Ġmemor": 7041,
      "hemical": 7042,
      "oric": 7043,
      "Ġneural": 7044,
      "Ġmarriage": 7045,
      "Ġintegrated": 7046,
      "van": 7047,
      "Ġbones": 7048,
      "Ġ29": 7049,
      "onents": 7050,
      "Ġopinions": 7051,
      "ĠIns": 7052,
      "Ġexhibit": 7053,
      "friendly": 7054,
      "Ġcategory": 7055,
      "Ġpandemic": 7056,
      "ĠBusiness": 7057,
      "Ġshad": 7058,
      "Ġpresident": 7059,
      "Ġastron": 7060,
      "urrent": 7061,
      "Ġvillage": 7062,
      "ulpt": 7063,
      "ĠFuture": 7064,
      "Ġindu": 7065,
      "ilation": 7066,
      "Ġimpossible": 7067,
      "faction": 7068,
      "Ġcamera": 7069,
      "Ġabstract": 7070,
      "Ġabund": 7071,
      "Ġwriter": 7072,
      "gers": 7073,
      "Ġpron": 7074,
      "Ġcounsel": 7075,
      "Ġphotograph": 7076,
      "Ġquiet": 7077,
      "Ġliver": 7078,
      "Ġsed": 7079,
      "opic": 7080,
      "Ġrice": 7081,
      "Ġjuvenile": 7082,
      "Ġunknown": 7083,
      "Ġordinary": 7084,
      "Ġopened": 7085,
      "Ġequipped": 7086,
      "Ġmyself": 7087,
      "Ġopinion": 7088,
      "Ġcouple": 7089,
      "IG": 7090,
      "Ġkilled": 7091,
      "Ġcooperation": 7092,
      "Ġconsiderations": 7093,
      "ĠLibr": 7094,
      "Ġbreaking": 7095,
      "Ġinclus": 7096,
      "Ġliteracy": 7097,
      "ĠClin": 7098,
      "BC": 7099,
      "ĠAge": 7100,
      "Ġconven": 7101,
      "Ġcompelling": 7102,
      "Ġconstantly": 7103,
      "Ġguarant": 7104,
      "ĠNever": 7105,
      "Ġextensive": 7106,
      "Ġvisiting": 7107,
      "Ġbeneath": 7108,
      "SS": 7109,
      "Ġequally": 7110,
      "Ġcompetitive": 7111,
      "Ġinstrument": 7112,
      "DF": 7113,
      "Ġdreams": 7114,
      "Ġscript": 7115,
      "Ġimprovements": 7116,
      "ora": 7117,
      "Ġvac": 7118,
      "Ġaer": 7119,
      "Ġthrive": 7120,
      "idential": 7121,
      "Ġanalys": 7122,
      "Ġcolorful": 7123,
      "Ġselecting": 7124,
      "Ġtale": 7125,
      "ieval": 7126,
      "Ġeager": 7127,
      "ĠNews": 7128,
      "Ġpeoples": 7129,
      "Ġitem": 7130,
      "Ġritual": 7131,
      "oving": 7132,
      "antly": 7133,
      "ĠJam": 7134,
      "Ġcircuit": 7135,
      "ĠSea": 7136,
      "Ġgentle": 7137,
      "Ġsatell": 7138,
      "uli": 7139,
      "Ġmoisture": 7140,
      "Ġhealthier": 7141,
      "Ġexpressed": 7142,
      "Ġharness": 7143,
      "Ġsafely": 7144,
      "ette": 7145,
      "cium": 7146,
      "gu": 7147,
      "Ġquantum": 7148,
      "rep": 7149,
      "ĠInvest": 7150,
      "ĠAtl": 7151,
      "Ġentities": 7152,
      "Ġrealize": 7153,
      "Ġpure": 7154,
      "Ġexplicit": 7155,
      "Ġfarming": 7156,
      "Ġcrow": 7157,
      "sem": 7158,
      "Ġentry": 7159,
      "Ġscenes": 7160,
      "ĠMass": 7161,
      "ĠThose": 7162,
      "ĠAppro": 7163,
      "ĠChoose": 7164,
      "ĠTexas": 7165,
      "Ġsin": 7166,
      "osc": 7167,
      "Ġplayer": 7168,
      "Ġ35": 7169,
      "Ġdescript": 7170,
      "eles": 7171,
      "Ġreceiving": 7172,
      "Ġconstrain": 7173,
      "Ġchannels": 7174,
      "cience": 7175,
      "Ġlargely": 7176,
      "Ġsurvive": 7177,
      "Ġleaf": 7178,
      "ensus": 7179,
      "Ġentreprene": 7180,
      "Ġtheoretical": 7181,
      "gs": 7182,
      "Ġfolk": 7183,
      "Ġrepeated": 7184,
      "Ġswim": 7185,
      "Ġdepict": 7186,
      "gans": 7187,
      "Ġrid": 7188,
      "Ġpurchase": 7189,
      "Ġforg": 7190,
      "ĠMethod": 7191,
      "anda": 7192,
      "ĠSupport": 7193,
      "lishing": 7194,
      "Ġdatabase": 7195,
      "body": 7196,
      "ĠBer": 7197,
      "Ġinnovations": 7198,
      "ĠTer": 7199,
      "Ġcentered": 7200,
      "Ġkindness": 7201,
      "iratory": 7202,
      "Ġbringing": 7203,
      "Ġ190": 7204,
      "Ġintake": 7205,
      "Ġgun": 7206,
      "ĠViet": 7207,
      "Ġdust": 7208,
      "ĠChange": 7209,
      "Ġlights": 7210,
      "phone": 7211,
      "Ġwest": 7212,
      "ĠGroup": 7213,
      "itely": 7214,
      "ĠGold": 7215,
      "Ġ2004": 7216,
      "ĠCatholic": 7217,
      "ĠMinist": 7218,
      "Ġrecommendations": 7219,
      "working": 7220,
      "matic": 7221,
      "Ġrail": 7222,
      "asures": 7223,
      "Ġmoves": 7224,
      "Ġmountain": 7225,
      "Ġglobe": 7226,
      "Ġcart": 7227,
      "ĠEmbra": 7228,
      "Ġkeeps": 7229,
      "VI": 7230,
      "Ġapparent": 7231,
      "Ġmeditation": 7232,
      "ulin": 7233,
      "Se": 7234,
      "Ġsongs": 7235,
      "ĠHome": 7236,
      "oom": 7237,
      "inder": 7238,
      "ierarch": 7239,
      "Ġmixture": 7240,
      "ING": 7241,
      "Ġsurprise": 7242,
      "Dr": 7243,
      "Ġtrouble": 7244,
      "Ġdiscoveries": 7245,
      "craft": 7246,
      "Ġcash": 7247,
      "Ġprecious": 7248,
      "Ġavailability": 7249,
      "Ġecological": 7250,
      "Ġzero": 7251,
      "ortion": 7252,
      "Ġdomain": 7253,
      "Ġunusual": 7254,
      "orter": 7255,
      "ocolate": 7256,
      "Ġkil": 7257,
      "Ġminimizing": 7258,
      "====": 7259,
      "Ġbust": 7260,
      "Ġcriminal": 7261,
      "Ġvisitors": 7262,
      "Ġgirl": 7263,
      "fall": 7264,
      "plement": 7265,
      "ĠEastern": 7266,
      "ĠSoviet": 7267,
      "Ġbiology": 7268,
      "Ġimagination": 7269,
      "Ġsyndrome": 7270,
      "Ġreinfor": 7271,
      "Ġhappiness": 7272,
      "Ġpump": 7273,
      "Ġcompounds": 7274,
      "Ġscore": 7275,
      "Ġframeworks": 7276,
      "Ġmerely": 7277,
      "outs": 7278,
      "Ġgreatest": 7279,
      "Ġbot": 7280,
      "Ġtrained": 7281,
      "Ġfosters": 7282,
      "48": 7283,
      "Ġresponsibilities": 7284,
      "Ġsharp": 7285,
      "Ġstores": 7286,
      "Ġminimal": 7287,
      "Ġfly": 7288,
      "Ġbroken": 7289,
      "apping": 7290,
      "Ġconcerned": 7291,
      "ĠVirgin": 7292,
      "Ġadds": 7293,
      "roud": 7294,
      "Ġinteractive": 7295,
      "Ġoppos": 7296,
      "ðŁ": 7297,
      "Ġcalm": 7298,
      "ĠItalian": 7299,
      "Ġrobot": 7300,
      "Ġgro": 7301,
      "Ġappeared": 7302,
      "ĠResp": 7303,
      "Ġdisturb": 7304,
      "ĠTechniques": 7305,
      "ostic": 7306,
      "Ġwilling": 7307,
      "Ġtrials": 7308,
      "ĠTom": 7309,
      "cons": 7310,
      "Ġstuff": 7311,
      "reens": 7312,
      "ĠLearn": 7313,
      "Ġsucceed": 7314,
      "orph": 7315,
      "Ġpapers": 7316,
      "Ġpassage": 7317,
      "?âĢĿ": 7318,
      "lock": 7319,
      "Ġsod": 7320,
      "Ġpool": 7321,
      "pling": 7322,
      "iological": 7323,
      "ĠHam": 7324,
      "ĠLGBT": 7325,
      "Ġweakness": 7326,
      "App": 7327,
      "Ġcher": 7328,
      "Ġratio": 7329,
      "Ġfif": 7330,
      "Ġble": 7331,
      "Ġreward": 7332,
      "'m": 7333,
      "sis": 7334,
      "Ġtrend": 7335,
      "Ġutilize": 7336,
      "theless": 7337,
      "Ġstre": 7338,
      "eenth": 7339,
      "avery": 7340,
      "Ġlasting": 7341,
      "ĠExt": 7342,
      "Ġemphasizing": 7343,
      "anning": 7344,
      "atal": 7345,
      "ĠCommission": 7346,
      "Ġdoors": 7347,
      "Ġped": 7348,
      "arding": 7349,
      "economic": 7350,
      "Ġworlds": 7351,
      "ĠCD": 7352,
      "Ġadvert": 7353,
      "ĠThroughout": 7354,
      "ustain": 7355,
      "Ġdivine": 7356,
      "Ġbrows": 7357,
      "Ġdisabilities": 7358,
      "ĠPop": 7359,
      "Ġtrop": 7360,
      "ĠStart": 7361,
      "war": 7362,
      "ada": 7363,
      "ĠÐ": 7364,
      "Ġmarginalized": 7365,
      "rowing": 7366,
      "Ġpromotes": 7367,
      "ĠSmith": 7368,
      "Ġpromising": 7369,
      "ployment": 7370,
      "net": 7371,
      "oven": 7372,
      "ĠAdm": 7373,
      "cription": 7374,
      "Ġrespectively": 7375,
      "icious": 7376,
      "ĠBack": 7377,
      "Ġbigger": 7378,
      "tw": 7379,
      "Ġmechanical": 7380,
      "ĠMove": 7381,
      "Ġrequest": 7382,
      "Ġdil": 7383,
      "Ġsubt": 7384,
      "Ġsecrets": 7385,
      "Ġavoiding": 7386,
      "Ġplenty": 7387,
      "CD": 7388,
      "My": 7389,
      "idity": 7390,
      "Ġbridge": 7391,
      "agram": 7392,
      "Ġbear": 7393,
      "Ġshares": 7394,
      "ĠPan": 7395,
      "Ġexpanding": 7396,
      "ĠWild": 7397,
      "Ġtough": 7398,
      "Ġtherapeutic": 7399,
      "Ġclient": 7400,
      "Ġstom": 7401,
      "Ġnurt": 7402,
      "Ġcorresponding": 7403,
      "Ġsight": 7404,
      "Ġtexture": 7405,
      "overning": 7406,
      "Ġsafegu": 7407,
      "iture": 7408,
      "Over": 7409,
      "Ġdelicate": 7410,
      "US": 7411,
      "ĠCanadian": 7412,
      "Ġimplemented": 7413,
      "Ġspir": 7414,
      "ĠSing": 7415,
      "Ġcomprehend": 7416,
      "Ġshifts": 7417,
      "esity": 7418,
      "Ġobvious": 7419,
      "tage": 7420,
      "Ġfertil": 7421,
      "Ġminerals": 7422,
      "Ġoccasion": 7423,
      "mates": 7424,
      "Ġsensitivity": 7425,
      "Ġanticip": 7426,
      "ĠIP": 7427,
      "Ġculinary": 7428,
      "Ġvocabulary": 7429,
      "Ġfilms": 7430,
      "Ġmissing": 7431,
      "Ġuniversal": 7432,
      "bert": 7433,
      "Today": 7434,
      "Ġmotivation": 7435,
      "ĠIde": 7436,
      "Ġemphasis": 7437,
      "door": 7438,
      "athered": 7439,
      "Ġperception": 7440,
      "Ġsau": 7441,
      "31": 7442,
      "Ġconfig": 7443,
      "Ġinsects": 7444,
      "ĠConnect": 7445,
      "ini": 7446,
      "ĠCultural": 7447,
      "oken": 7448,
      "ĠOrig": 7449,
      "ĠRob": 7450,
      "Ġvessels": 7451,
      "rieved": 7452,
      "ĠFort": 7453,
      "Ġemerge": 7454,
      "Ġformula": 7455,
      "Ġrecipes": 7456,
      "Ġends": 7457,
      "etime": 7458,
      "Ġprison": 7459,
      "Ã³": 7460,
      "opl": 7461,
      "Ġoutcome": 7462,
      "Ġcleaning": 7463,
      "Ġmode": 7464,
      "osph": 7465,
      "Ġpeers": 7466,
      "ĠCommunity": 7467,
      "west": 7468,
      "Ġcombine": 7469,
      "Ġsupplement": 7470,
      "Ġbio": 7471,
      "Ġlegs": 7472,
      "Most": 7473,
      "Ġrecon": 7474,
      "ker": 7475,
      "Ġmechanism": 7476,
      "ĠFocus": 7477,
      "orses": 7478,
      "zed": 7479,
      "Ġrelief": 7480,
      "Ġdemonstrates": 7481,
      "Ġsuddenly": 7482,
      "Ġboy": 7483,
      "ache": 7484,
      "ĠSpain": 7485,
      "Ġmovies": 7486,
      "Ġbutton": 7487,
      "ĠAnaly": 7488,
      "Ġdecline": 7489,
      "Ġlinguistic": 7490,
      "Read": 7491,
      "Ġgall": 7492,
      "Ġtro": 7493,
      "Ġpharm": 7494,
      "Ġsentences": 7495,
      "Ġmigration": 7496,
      "Ġ2003": 7497,
      "fish": 7498,
      "'d": 7499,
      "Ġdisag": 7500,
      "Ġsheet": 7501,
      "Ġjoined": 7502,
      "Ġyes": 7503,
      "Ġgreatly": 7504,
      "ruption": 7505,
      "Ġtested": 7506,
      "ĠPlay": 7507,
      "Ġillum": 7508,
      "Ġdifficulty": 7509,
      "Ġprofessor": 7510,
      "step": 7511,
      "Ġcourage": 7512,
      "ĠPhot": 7513,
      "ĠPolit": 7514,
      "ĠIslamic": 7515,
      "Ġyog": 7516,
      "ĠContin": 7517,
      "stone": 7518,
      "ĠNAS": 7519,
      "Ġangle": 7520,
      "imensional": 7521,
      "ĠDraw": 7522,
      "Ġsitting": 7523,
      "Ġpassing": 7524,
      "Ġpopularity": 7525,
      "ircraft": 7526,
      "Ġoblig": 7527,
      "Ġessence": 7528,
      "ket": 7529,
      "Ġinstalled": 7530,
      "ĠWrite": 7531,
      "Ġintersection": 7532,
      "ĠMont": 7533,
      "Ġchances": 7534,
      "lar": 7535,
      "Ġear": 7536,
      "Ġexplains": 7537,
      "Ġmolecular": 7538,
      "Ġcour": 7539,
      "Ġlighting": 7540,
      "ĠLand": 7541,
      "edy": 7542,
      "nov": 7543,
      "Ġcontrols": 7544,
      "Ġmoon": 7545,
      "rac": 7546,
      "ĠPot": 7547,
      "bed": 7548,
      "Ġbasics": 7549,
      "Ġsacr": 7550,
      "ella": 7551,
      "uts": 7552,
      "cluding": 7553,
      "HD": 7554,
      "Ġkm": 7555,
      "\")": 7556,
      "Ġpersons": 7557,
      "Ġsuffer": 7558,
      "Ġmand": 7559,
      "ĠRad": 7560,
      "Ġprotective": 7561,
      "ĠUnlike": 7562,
      "Ġhonor": 7563,
      "ĠStat": 7564,
      "weight": 7565,
      "Ab": 7566,
      "Ġcontrolling": 7567,
      "eat": 7568,
      "Ġattached": 7569,
      "Ġcater": 7570,
      "Ġbol": 7571,
      "Ġrenewable": 7572,
      "ĠRom": 7573,
      "Ġrepair": 7574,
      "Ġtwice": 7575,
      "LE": 7576,
      "Ġwestern": 7577,
      "Ġaccepted": 7578,
      "Ġputting": 7579,
      "ĠTrends": 7580,
      "Ġrefuge": 7581,
      "Ġtissues": 7582,
      "ĠTry": 7583,
      "eday": 7584,
      "Ġconsciousness": 7585,
      "born": 7586,
      "Ġequation": 7587,
      "Ġcorrel": 7588,
      "Ġdelight": 7589,
      "Ġstatements": 7590,
      "Ġbranch": 7591,
      "Ġstead": 7592,
      "ĠIndust": 7593,
      "aked": 7594,
      "Ġwife": 7595,
      "Ġsculpt": 7596,
      "Ġparallel": 7597,
      "ĠDigital": 7598,
      "ona": 7599,
      "Ġarmy": 7600,
      "Ġdominant": 7601,
      "Ġinhabit": 7602,
      "Stud": 7603,
      "otion": 7604,
      "Ġadaptation": 7605,
      "Ġcha": 7606,
      "Ġprospect": 7607,
      "Ġsession": 7608,
      "Ġmeasurements": 7609,
      "class": 7610,
      "`.": 7611,
      "Ġfu": 7612,
      "Ġfurn": 7613,
      "Ġmanifest": 7614,
      "Ġportray": 7615,
      "ĠDiscuss": 7616,
      "Ġcompris": 7617,
      "Moreover": 7618,
      "ĠVict": 7619,
      "Ġwish": 7620,
      "Ġadopt": 7621,
      "Ġpaths": 7622,
      "Ġ45": 7623,
      "ĠNations": 7624,
      "Ġnumer": 7625,
      "Ġnewly": 7626,
      "Ġsensors": 7627,
      "ĠFoundation": 7628,
      "Ġstatistics": 7629,
      "ĠMo": 7630,
      "Ġinclusivity": 7631,
      "jud": 7632,
      "uisine": 7633,
      "itals": 7634,
      "Ġperpet": 7635,
      "Ġveter": 7636,
      "Ġimmense": 7637,
      "Ġinfluential": 7638,
      "Ġtang": 7639,
      "95": 7640,
      "Ġscenario": 7641,
      "Ġdesigners": 7642,
      "ĠAp": 7643,
      "Ġdent": 7644,
      "Ref": 7645,
      "aud": 7646,
      "Ġpoem": 7647,
      "esis": 7648,
      "De": 7649,
      "Ġthrilling": 7650,
      "Ġhus": 7651,
      "Ġinvestigate": 7652,
      "Ġ1990": 7653,
      "hero": 7654,
      "Ġequival": 7655,
      "Ġsomeday": 7656,
      "Ġhabitats": 7657,
      "Ġreflects": 7658,
      "Ġclothes": 7659,
      "Ġda": 7660,
      "Ġclassical": 7661,
      "ĠIll": 7662,
      "Ġflexible": 7663,
      "Ġparticipating": 7664,
      "Ġestablishing": 7665,
      "enges": 7666,
      "Ġinfected": 7667,
      "ĠFamily": 7668,
      "Ġrac": 7669,
      "rey": 7670,
      "TM": 7671,
      "Ġapps": 7672,
      "Ġnecessarily": 7673,
      "'.": 7674,
      "solving": 7675,
      "Ġfract": 7676,
      "opt": 7677,
      "Ġdys": 7678,
      "ĠMu": 7679,
      "Ġreject": 7680,
      "ĠAssess": 7681,
      "Ġathletes": 7682,
      "dem": 7683,
      "Ġencouraged": 7684,
      "Ġcontam": 7685,
      "ĠLake": 7686,
      "itchen": 7687,
      ".;": 7688,
      "ĠLittle": 7689,
      "Ġuniversity": 7690,
      "Ġmembran": 7691,
      "Ġmild": 7692,
      "Ġseg": 7693,
      "Ġelectro": 7694,
      "ĠInit": 7695,
      "Gen": 7696,
      "nes": 7697,
      "illa": 7698,
      "Ġmining": 7699,
      "ĠRobert": 7700,
      "Ġcarrying": 7701,
      "ĠYes": 7702,
      "Ġsmoking": 7703,
      "arency": 7704,
      "Ġlemon": 7705,
      "ctic": 7706,
      "Ġcreations": 7707,
      "Ġmindfulness": 7708,
      "Ġdemonstrating": 7709,
      "Ġinterpre": 7710,
      "itting": 7711,
      "Ġconserv": 7712,
      "Ġrivers": 7713,
      "umps": 7714,
      "Ġaudio": 7715,
      "Qu": 7716,
      "Ġrect": 7717,
      "Ġinhib": 7718,
      "ports": 7719,
      "Ġversions": 7720,
      "Ġregulatory": 7721,
      "Ġvig": 7722,
      "aval": 7723,
      "Ġmeasuring": 7724,
      "ĠReading": 7725,
      "ĠClimate": 7726,
      "Ġmistakes": 7727,
      "Ġresulted": 7728,
      "ĠItaly": 7729,
      "Ġdescription": 7730,
      "Ġwarming": 7731,
      "vision": 7732,
      "Ġframe": 7733,
      "Ġenrich": 7734,
      "ĠUnfortunately": 7735,
      "oys": 7736,
      "Ġdetermining": 7737,
      "Ġtables": 7738,
      "ĠBro": 7739,
      "ĠOnline": 7740,
      "Ġbibl": 7741,
      "Ġtwist": 7742,
      "ki": 7743,
      "mes": 7744,
      "zil": 7745,
      "mers": 7746,
      "Ġopposite": 7747,
      "ĠWord": 7748,
      "rue": 7749,
      "Ġnuanced": 7750,
      "Ġperceived": 7751,
      "iotics": 7752,
      "Ġcontainer": 7753,
      "ĠNatural": 7754,
      "no": 7755,
      "ĠChristians": 7756,
      "44": 7757,
      "brid": 7758,
      "ĠConstitution": 7759,
      "uke": 7760,
      "ĠCompany": 7761,
      "ĠOcean": 7762,
      "isticated": 7763,
      "han": 7764,
      "Ġacids": 7765,
      "ailing": 7766,
      "Ġinject": 7767,
      "Ġequitable": 7768,
      "Ġdebt": 7769,
      "position": 7770,
      "Ġalive": 7771,
      "estions": 7772,
      "ushing": 7773,
      "erts": 7774,
      "Ġgap": 7775,
      "Ġphysically": 7776,
      "Ġcaught": 7777,
      "Ġruns": 7778,
      "Ġidentification": 7779,
      "taking": 7780,
      "ĠSelf": 7781,
      "Ġflight": 7782,
      "Ġterritory": 7783,
      "ĠRome": 7784,
      "Ġchrom": 7785,
      "Ġcrypt": 7786,
      "Ġsubtle": 7787,
      "Ġobservation": 7788,
      "Ġinequality": 7789,
      "Ġrigorous": 7790,
      "cultural": 7791,
      "Ġrecept": 7792,
      "Ġdispl": 7793,
      "agraph": 7794,
      "Ġbranches": 7795,
      "ĠContemporary": 7796,
      "lecting": 7797,
      "points": 7798,
      "Ġgoverning": 7799,
      "Ġassumptions": 7800,
      "Ġorgans": 7801,
      "Ġhumor": 7802,
      "Ġselling": 7803,
      "Ġmeasurement": 7804,
      "Ġdedication": 7805,
      "ĠTimmy": 7806,
      "Ġtapest": 7807,
      "Ġlik": 7808,
      "Ġhierarch": 7809,
      "Ġcolleagues": 7810,
      "taining": 7811,
      "ota": 7812,
      "Ġserver": 7813,
      "Ġequity": 7814,
      "ĠFranc": 7815,
      "Ġgrid": 7816,
      "Ġstrive": 7817,
      "zen": 7818,
      "Ġhob": 7819,
      "cho": 7820,
      "ipher": 7821,
      "ĠCheck": 7822,
      "Ġethics": 7823,
      "Of": 7824,
      "aria": 7825,
      "levision": 7826,
      "acher": 7827,
      "Ġtransformed": 7828,
      "ĠAP": 7829,
      "Ġpra": 7830,
      "Ġowners": 7831,
      "ĠExam": 7832,
      "*:": 7833,
      "onial": 7834,
      "Ġconsistently": 7835,
      "Ġconstitution": 7836,
      "Ġgovernance": 7837,
      "Ġcomparison": 7838,
      "Ġroof": 7839,
      "Ġfrust": 7840,
      "ĠFree": 7841,
      "ĠAustralian": 7842,
      "ĠTem": 7843,
      "ĠTips": 7844,
      "Ġrising": 7845,
      "Ġ2001": 7846,
      "ĠJohnson": 7847,
      "Sc": 7848,
      "Ġproud": 7849,
      "Ġdepos": 7850,
      "Ġtargets": 7851,
      "Ġskilled": 7852,
      "ht": 7853,
      "ĠGuide": 7854,
      "Ġfinger": 7855,
      "ĠUSA": 7856,
      "Ġfeeding": 7857,
      "Ġgreenhouse": 7858,
      "Ġpushing": 7859,
      "Ġaccessibility": 7860,
      "Ġstomach": 7861,
      "Ġbiodiversity": 7862,
      "Ġmarks": 7863,
      "Ġli": 7864,
      "ĠYoung": 7865,
      "eren": 7866,
      "ĠColor": 7867,
      "uthor": 7868,
      "HO": 7869,
      "Ġdamaged": 7870,
      "Ġgest": 7871,
      "ulates": 7872,
      "Ġnewsp": 7873,
      "Just": 7874,
      "Ġtoy": 7875,
      "Ġgathered": 7876,
      "ĠRole": 7877,
      "Ġtip": 7878,
      "Ġrab": 7879,
      "Ġraising": 7880,
      "owers": 7881,
      "Ġbanks": 7882,
      "Ġstereotypes": 7883,
      "ivation": 7884,
      "elled": 7885,
      "Ġdietary": 7886,
      "Ġexplaining": 7887,
      "ĠIN": 7888,
      "Ġembed": 7889,
      "ugg": 7890,
      "Ġviruses": 7891,
      "ĠLGBTQ": 7892,
      "ading": 7893,
      "Ġsmoothly": 7894,
      "Ġbustling": 7895,
      "ĠSuper": 7896,
      "Ġalter": 7897,
      "Ġimaging": 7898,
      "Ġsurroundings": 7899,
      "ĠJose": 7900,
      "earchers": 7901,
      "Ġrocks": 7902,
      "Ġcovers": 7903,
      "breaking": 7904,
      "Ġdeaths": 7905,
      "IP": 7906,
      "Ġpossibility": 7907,
      "Ġsubs": 7908,
      "Ġfalse": 7909,
      "Ġsophisticated": 7910,
      "ĠDan": 7911,
      "onal": 7912,
      "Ġcoverage": 7913,
      "ĠEnd": 7914,
      "85": 7915,
      "Ġfer": 7916,
      "Ġlegislation": 7917,
      "ĠMind": 7918,
      "olves": 7919,
      "Ġgal": 7920,
      "Ġrepresentations": 7921,
      "ĠScot": 7922,
      "Ġsacred": 7923,
      "Ġuniform": 7924,
      "iated": 7925,
      "ĠLouis": 7926,
      "Ġmold": 7927,
      "everal": 7928,
      "Ġdanger": 7929,
      "uris": 7930,
      "oons": 7931,
      "Ġnone": 7932,
      "Ġobserving": 7933,
      "exp": 7934,
      "Ġweapons": 7935,
      "Ġneur": 7936,
      "oning": 7937,
      "list": 7938,
      "Ġownership": 7939,
      "ciplinary": 7940,
      "ĠPo": 7941,
      "Ġintensity": 7942,
      "issance": 7943,
      "Ġhistoric": 7944,
      "ita": 7945,
      "ĠLead": 7946,
      "test": 7947,
      "76": 7948,
      "Ġpond": 7949,
      "ĠLab": 7950,
      "ĠApplications": 7951,
      "Ġprofit": 7952,
      "Ġpossibly": 7953,
      "atile": 7954,
      "ĠProp": 7955,
      "Ġhypothes": 7956,
      "Ġdisability": 7957,
      "Ġslavery": 7958,
      "real": 7959,
      "utch": 7960,
      "angle": 7961,
      "elfare": 7962,
      "Ġachievements": 7963,
      "Ġunless": 7964,
      "Ġartwork": 7965,
      "ĠDet": 7966,
      "500": 7967,
      "Ġbath": 7968,
      "Your": 7969,
      "Ġadverse": 7970,
      "Ġequations": 7971,
      "Ġfunctioning": 7972,
      "Ġprobability": 7973,
      "ĠTheory": 7974,
      "Ġwhatever": 7975,
      "Ġworse": 7976,
      "Ġcalculated": 7977,
      "clusive": 7978,
      "Ġfossil": 7979,
      "Ġlosing": 7980,
      "olar": 7981,
      "Ġcoc": 7982,
      "Ġspatial": 7983,
      "ĠCy": 7984,
      "Ġsatisfaction": 7985,
      "Ġrelation": 7986,
      "Ġmystery": 7987,
      "how": 7988,
      "erior": 7989,
      "Ġconstraints": 7990,
      "Ġtric": 7991,
      "yle": 7992,
      "Ġgiant": 7993,
      "ĠOper": 7994,
      "Ġbrave": 7995,
      "ĠCa": 7996,
      "ĠThough": 7997,
      "ua": 7998,
      "Ġacceptance": 7999
    },
    "merges": [
      [
        "Ġ",
        "t"
      ],
      [
        "i",
        "n"
      ],
      [
        "Ġ",
        "a"
      ],
      [
        "h",
        "e"
      ],
      [
        "r",
        "e"
      ],
      [
        "o",
        "n"
      ],
      [
        "e",
        "r"
      ],
      [
        "a",
        "t"
      ],
      [
        "Ġ",
        "s"
      ],
      [
        "Ġt",
        "he"
      ],
      [
        "Ġ",
        "c"
      ],
      [
        "e",
        "n"
      ],
      [
        "e",
        "s"
      ],
      [
        "Ġ",
        "o"
      ],
      [
        "in",
        "g"
      ],
      [
        "n",
        "d"
      ],
      [
        "i",
        "t"
      ],
      [
        "Ġ",
        "w"
      ],
      [
        "a",
        "l"
      ],
      [
        "o",
        "r"
      ],
      [
        "Ġ",
        "p"
      ],
      [
        "i",
        "s"
      ],
      [
        "o",
        "u"
      ],
      [
        "Ġ",
        "f"
      ],
      [
        "a",
        "n"
      ],
      [
        "e",
        "d"
      ],
      [
        "Ġ",
        "b"
      ],
      [
        "Ġ",
        "in"
      ],
      [
        "Ġa",
        "nd"
      ],
      [
        "i",
        "on"
      ],
      [
        "a",
        "r"
      ],
      [
        "i",
        "c"
      ],
      [
        "Ġ",
        "m"
      ],
      [
        "Ġo",
        "f"
      ],
      [
        "Ġ",
        "d"
      ],
      [
        "Ġt",
        "o"
      ],
      [
        "l",
        "e"
      ],
      [
        "r",
        "o"
      ],
      [
        "en",
        "t"
      ],
      [
        "Ġ",
        "e"
      ],
      [
        "c",
        "t"
      ],
      [
        "s",
        "t"
      ],
      [
        "Ġ",
        "h"
      ],
      [
        "Ġt",
        "h"
      ],
      [
        "Ġ",
        "re"
      ],
      [
        "o",
        "m"
      ],
      [
        "i",
        "l"
      ],
      [
        "v",
        "e"
      ],
      [
        "Ġ",
        "l"
      ],
      [
        "a",
        "s"
      ],
      [
        "e",
        "t"
      ],
      [
        "l",
        "y"
      ],
      [
        "Ġ",
        "n"
      ],
      [
        "at",
        "ion"
      ],
      [
        "s",
        "e"
      ],
      [
        "o",
        "l"
      ],
      [
        "i",
        "m"
      ],
      [
        "Ġ",
        "g"
      ],
      [
        "r",
        "a"
      ],
      [
        "u",
        "r"
      ],
      [
        "c",
        "e"
      ],
      [
        "i",
        "d"
      ],
      [
        "Ġ",
        "T"
      ],
      [
        "o",
        "w"
      ],
      [
        "i",
        "g"
      ],
      [
        "Ġ",
        "u"
      ],
      [
        "c",
        "h"
      ],
      [
        "u",
        "t"
      ],
      [
        "Ġ",
        "y"
      ],
      [
        "Ġb",
        "e"
      ],
      [
        "Ġs",
        "t"
      ],
      [
        "o",
        "t"
      ],
      [
        "v",
        "er"
      ],
      [
        "Ġ",
        "is"
      ],
      [
        "Ġ",
        "A"
      ],
      [
        "Ġf",
        "or"
      ],
      [
        "u",
        "l"
      ],
      [
        "i",
        "r"
      ],
      [
        "Ġ",
        "S"
      ],
      [
        "Ġc",
        "on"
      ],
      [
        "Ġy",
        "ou"
      ],
      [
        "Ġ",
        "on"
      ],
      [
        "e",
        "l"
      ],
      [
        "â",
        "Ģ"
      ],
      [
        "it",
        "h"
      ],
      [
        "a",
        "y"
      ],
      [
        "a",
        "m"
      ],
      [
        "Ġ",
        "C"
      ],
      [
        "Ġ",
        "I"
      ],
      [
        "i",
        "f"
      ],
      [
        "Ġp",
        "ro"
      ],
      [
        "Ġth",
        "at"
      ],
      [
        "he",
        "r"
      ],
      [
        "er",
        "s"
      ],
      [
        "Ġw",
        "ith"
      ],
      [
        "Ġe",
        "x"
      ],
      [
        "Ġa",
        "s"
      ],
      [
        "i",
        "es"
      ],
      [
        "a",
        "d"
      ],
      [
        "es",
        "s"
      ],
      [
        "Ġo",
        "r"
      ],
      [
        "at",
        "e"
      ],
      [
        "m",
        "ent"
      ],
      [
        "Ġw",
        "h"
      ],
      [
        "Ġa",
        "n"
      ],
      [
        "-",
        "-"
      ],
      [
        "a",
        "g"
      ],
      [
        "o",
        "d"
      ],
      [
        "e",
        "ct"
      ],
      [
        "is",
        "t"
      ],
      [
        "Ġc",
        "om"
      ],
      [
        "Ġa",
        "l"
      ],
      [
        "Ġ",
        "it"
      ],
      [
        "t",
        "er"
      ],
      [
        "re",
        "s"
      ],
      [
        "a",
        "b"
      ],
      [
        "it",
        "y"
      ],
      [
        "i",
        "v"
      ],
      [
        "Ġd",
        "e"
      ],
      [
        "i",
        "ve"
      ],
      [
        "u",
        "s"
      ],
      [
        "t",
        "h"
      ],
      [
        "Ġ",
        "v"
      ],
      [
        "o",
        "p"
      ],
      [
        "q",
        "u"
      ],
      [
        "Ġ",
        "M"
      ],
      [
        "Ġa",
        "re"
      ],
      [
        "Ġs",
        "u"
      ],
      [
        "Ġ",
        "he"
      ],
      [
        "k",
        "e"
      ],
      [
        "p",
        "p"
      ],
      [
        "o",
        "re"
      ],
      [
        "Ġ",
        "P"
      ],
      [
        "e",
        "m"
      ],
      [
        "t",
        "s"
      ],
      [
        "Ġ",
        "B"
      ],
      [
        "a",
        "c"
      ],
      [
        "Ġw",
        "e"
      ],
      [
        "il",
        "l"
      ],
      [
        "a",
        "nd"
      ],
      [
        "i",
        "al"
      ],
      [
        "ĠT",
        "he"
      ],
      [
        "Ġ",
        "("
      ],
      [
        "a",
        "in"
      ],
      [
        "ig",
        "h"
      ],
      [
        "o",
        "c"
      ],
      [
        "Ġc",
        "h"
      ],
      [
        "Ġ",
        "W"
      ],
      [
        "Ġ",
        "en"
      ],
      [
        "u",
        "m"
      ],
      [
        "o",
        "s"
      ],
      [
        "Ġ",
        "le"
      ],
      [
        "l",
        "d"
      ],
      [
        "es",
        "t"
      ],
      [
        "u",
        "n"
      ],
      [
        "r",
        "ou"
      ],
      [
        "ic",
        "al"
      ],
      [
        "u",
        "re"
      ],
      [
        "Ġ",
        "H"
      ],
      [
        "ion",
        "s"
      ],
      [
        "Ġ",
        "E"
      ],
      [
        "Ġc",
        "an"
      ],
      [
        "u",
        "d"
      ],
      [
        "Ġn",
        "e"
      ],
      [
        "ro",
        "m"
      ],
      [
        "n",
        "t"
      ],
      [
        "an",
        "t"
      ],
      [
        "Ġ",
        "1"
      ],
      [
        "p",
        "l"
      ],
      [
        "r",
        "i"
      ],
      [
        "Ġ",
        "F"
      ],
      [
        "Ġs",
        "e"
      ],
      [
        "Ġ",
        "D"
      ],
      [
        "Ġb",
        "y"
      ],
      [
        "o",
        "g"
      ],
      [
        "or",
        "t"
      ],
      [
        "a",
        "p"
      ],
      [
        "Ġ",
        "R"
      ],
      [
        "Ġin",
        "t"
      ],
      [
        "g",
        "h"
      ],
      [
        "Ġa",
        "t"
      ],
      [
        "Ġh",
        "a"
      ],
      [
        "Ġ",
        "r"
      ],
      [
        "Ġs",
        "h"
      ],
      [
        "Ġyou",
        "r"
      ],
      [
        "Ġs",
        "p"
      ],
      [
        "Ġa",
        "b"
      ],
      [
        "al",
        "l"
      ],
      [
        "Ġ",
        "im"
      ],
      [
        "ou",
        "t"
      ],
      [
        "Ġf",
        "rom"
      ],
      [
        "i",
        "z"
      ],
      [
        "'",
        "s"
      ],
      [
        "Ġw",
        "or"
      ],
      [
        "in",
        "e"
      ],
      [
        "ation",
        "s"
      ],
      [
        "e",
        "re"
      ],
      [
        "Ġthe",
        "ir"
      ],
      [
        "Ġu",
        "s"
      ],
      [
        "ar",
        "t"
      ],
      [
        "Ġth",
        "is"
      ],
      [
        "om",
        "e"
      ],
      [
        "g",
        "e"
      ],
      [
        "Ġ",
        "L"
      ],
      [
        "u",
        "st"
      ],
      [
        "ou",
        "r"
      ],
      [
        "ou",
        "s"
      ],
      [
        "a",
        "ct"
      ],
      [
        "a",
        "re"
      ],
      [
        "p",
        "er"
      ],
      [
        "Ġp",
        "l"
      ],
      [
        "igh",
        "t"
      ],
      [
        "âĢ",
        "Ļ"
      ],
      [
        "ar",
        "d"
      ],
      [
        "Ġa",
        "d"
      ],
      [
        "Ġcom",
        "p"
      ],
      [
        "--",
        "--"
      ],
      [
        "Ġ",
        "N"
      ],
      [
        "Ġcon",
        "t"
      ],
      [
        "Ġ",
        "G"
      ],
      [
        "t",
        "her"
      ],
      [
        "a",
        "st"
      ],
      [
        "Ġw",
        "he"
      ],
      [
        "k",
        "ing"
      ],
      [
        "ag",
        "e"
      ],
      [
        "f",
        "f"
      ],
      [
        "an",
        "s"
      ],
      [
        "an",
        "ce"
      ],
      [
        "Ġ",
        "2"
      ],
      [
        "i",
        "p"
      ],
      [
        "Ġre",
        "s"
      ],
      [
        "en",
        "d"
      ],
      [
        "Ġthe",
        "y"
      ],
      [
        "id",
        "e"
      ],
      [
        "el",
        "l"
      ],
      [
        "d",
        "u"
      ],
      [
        "e",
        "c"
      ],
      [
        "Ġha",
        "ve"
      ],
      [
        "Ġd",
        "is"
      ],
      [
        "Ġ",
        "O"
      ],
      [
        "Ġw",
        "as"
      ],
      [
        "p",
        "t"
      ],
      [
        "o",
        "st"
      ],
      [
        "ĠT",
        "h"
      ],
      [
        "at",
        "ed"
      ],
      [
        "Ġ",
        "âĢ"
      ],
      [
        "ou",
        "ld"
      ],
      [
        "r",
        "u"
      ],
      [
        "i",
        "b"
      ],
      [
        "ul",
        "t"
      ],
      [
        "Ġin",
        "c"
      ],
      [
        "Ġn",
        "ot"
      ],
      [
        "on",
        "g"
      ],
      [
        "u",
        "al"
      ],
      [
        "Ġ",
        "k"
      ],
      [
        "ab",
        "le"
      ],
      [
        "c",
        "c"
      ],
      [
        "or",
        "m"
      ],
      [
        "ic",
        "h"
      ],
      [
        "k",
        "s"
      ],
      [
        "Ġt",
        "e"
      ],
      [
        "e",
        "p"
      ],
      [
        "en",
        "ce"
      ],
      [
        "ar",
        "y"
      ],
      [
        "Ġal",
        "l"
      ],
      [
        "ve",
        "l"
      ],
      [
        "i",
        "ke"
      ],
      [
        "ig",
        "n"
      ],
      [
        "Ġu",
        "n"
      ],
      [
        "c",
        "es"
      ],
      [
        "Ġab",
        "out"
      ],
      [
        "Ġim",
        "p"
      ],
      [
        "Ġ",
        "U"
      ],
      [
        "in",
        "d"
      ],
      [
        "re",
        "at"
      ],
      [
        "ent",
        "s"
      ],
      [
        "Ġm",
        "e"
      ],
      [
        "i",
        "e"
      ],
      [
        "a",
        "ch"
      ],
      [
        "Ġw",
        "ill"
      ],
      [
        "Ġ",
        "j"
      ],
      [
        "Ġc",
        "l"
      ],
      [
        "nd",
        "er"
      ],
      [
        "Ġa",
        "pp"
      ],
      [
        "o",
        "od"
      ],
      [
        "res",
        "s"
      ],
      [
        "ct",
        "ion"
      ],
      [
        "ĠI",
        "n"
      ],
      [
        "a",
        "v"
      ],
      [
        "r",
        "y"
      ],
      [
        "T",
        "he"
      ],
      [
        "Ġd",
        "o"
      ],
      [
        "e",
        "ar"
      ],
      [
        "rou",
        "gh"
      ],
      [
        "i",
        "re"
      ],
      [
        "or",
        "s"
      ],
      [
        "Ġa",
        "r"
      ],
      [
        "Ġm",
        "an"
      ],
      [
        "Ġ",
        "J"
      ],
      [
        "i",
        "le"
      ],
      [
        "Ġthe",
        "se"
      ],
      [
        "Ġe",
        "v"
      ],
      [
        "it",
        "ion"
      ],
      [
        "o",
        "o"
      ],
      [
        "Ġint",
        "o"
      ],
      [
        "Ġo",
        "ther"
      ],
      [
        "Ġm",
        "ore"
      ],
      [
        "it",
        "ies"
      ],
      [
        "Ġl",
        "ike"
      ],
      [
        "Ġwh",
        "ich"
      ],
      [
        "as",
        "s"
      ],
      [
        "ic",
        "e"
      ],
      [
        "at",
        "ing"
      ],
      [
        "0",
        "0"
      ],
      [
        "Ġe",
        "m"
      ],
      [
        "Ġthe",
        "m"
      ],
      [
        "i",
        "a"
      ],
      [
        "on",
        "e"
      ],
      [
        "ver",
        "y"
      ],
      [
        "Ġcom",
        "m"
      ],
      [
        "f",
        "orm"
      ],
      [
        "Ġp",
        "er"
      ],
      [
        "c",
        "i"
      ],
      [
        "u",
        "e"
      ],
      [
        "Ġp",
        "re"
      ],
      [
        "im",
        "e"
      ],
      [
        "Ġm",
        "a"
      ],
      [
        "or",
        "y"
      ],
      [
        "Ġo",
        "ur"
      ],
      [
        "il",
        "d"
      ],
      [
        "at",
        "er"
      ],
      [
        "Ġh",
        "ow"
      ],
      [
        "en",
        "s"
      ],
      [
        "s",
        "o"
      ],
      [
        "ol",
        "og"
      ],
      [
        "Ġh",
        "as"
      ],
      [
        "Ġu",
        "nder"
      ],
      [
        "o",
        "se"
      ],
      [
        "ing",
        "s"
      ],
      [
        "Ġo",
        "ut"
      ],
      [
        "n",
        "ow"
      ],
      [
        "an",
        "g"
      ],
      [
        "Ġt",
        "ra"
      ],
      [
        "ment",
        "s"
      ],
      [
        "Ġs",
        "o"
      ],
      [
        "if",
        "ic"
      ],
      [
        "Ġ",
        "Ġ"
      ],
      [
        "Ġu",
        "p"
      ],
      [
        "a",
        "ce"
      ],
      [
        "r",
        "it"
      ],
      [
        "Ġin",
        "d"
      ],
      [
        "Ġp",
        "e"
      ],
      [
        "if",
        "f"
      ],
      [
        "Ġb",
        "et"
      ],
      [
        "Ġ",
        "qu"
      ],
      [
        "ac",
        "k"
      ],
      [
        "Ġb",
        "ut"
      ],
      [
        "Ġ",
        "\""
      ],
      [
        "Ġf",
        "e"
      ],
      [
        "Ġon",
        "e"
      ],
      [
        "Ġs",
        "y"
      ],
      [
        "b",
        "er"
      ],
      [
        "Ġst",
        "ud"
      ],
      [
        "ar",
        "n"
      ],
      [
        "Ġ",
        "ro"
      ],
      [
        "r",
        "ic"
      ],
      [
        "i",
        "ous"
      ],
      [
        "*",
        "*"
      ],
      [
        "Ġal",
        "so"
      ],
      [
        "Ġwhe",
        "n"
      ],
      [
        "or",
        "d"
      ],
      [
        "Ġbe",
        "c"
      ],
      [
        "as",
        "e"
      ],
      [
        "ou",
        "nd"
      ],
      [
        "Ġs",
        "ome"
      ],
      [
        "Ġp",
        "art"
      ],
      [
        "Ġit",
        "s"
      ],
      [
        "Ġwh",
        "o"
      ],
      [
        "f",
        "ul"
      ],
      [
        "ĠS",
        "t"
      ],
      [
        "Ġt",
        "r"
      ],
      [
        "Ġd",
        "iff"
      ],
      [
        "a",
        "u"
      ],
      [
        "ur",
        "ing"
      ],
      [
        "ĠTh",
        "is"
      ],
      [
        "on",
        "s"
      ],
      [
        "is",
        "h"
      ],
      [
        "Ġcon",
        "s"
      ],
      [
        "ay",
        "s"
      ],
      [
        "l",
        "es"
      ],
      [
        "l",
        "ow"
      ],
      [
        "Ġth",
        "rough"
      ],
      [
        "Ġc",
        "ol"
      ],
      [
        "n",
        "e"
      ],
      [
        "Ġhe",
        "l"
      ],
      [
        "rou",
        "nd"
      ],
      [
        "a",
        "k"
      ],
      [
        "w",
        "e"
      ],
      [
        "u",
        "res"
      ],
      [
        "le",
        "ct"
      ],
      [
        "p",
        "h"
      ],
      [
        "Ġsu",
        "ch"
      ],
      [
        "Ġhel",
        "p"
      ],
      [
        "Ġre",
        "c"
      ],
      [
        "am",
        "e"
      ],
      [
        "ou",
        "nt"
      ],
      [
        "op",
        "le"
      ],
      [
        "Ġt",
        "ime"
      ],
      [
        "ĠC",
        "h"
      ],
      [
        "it",
        "e"
      ],
      [
        "Ġre",
        "l"
      ],
      [
        "al",
        "ly"
      ],
      [
        "Ġin",
        "ter"
      ],
      [
        "at",
        "es"
      ],
      [
        "Ġk",
        "now"
      ],
      [
        "Ġo",
        "ver"
      ],
      [
        "er",
        "v"
      ],
      [
        "on",
        "d"
      ],
      [
        "ic",
        "s"
      ],
      [
        "a",
        "il"
      ],
      [
        "Ġwe",
        "re"
      ],
      [
        "Ġa",
        "cc"
      ],
      [
        "Ġd",
        "es"
      ],
      [
        "ou",
        "gh"
      ],
      [
        "m",
        "s"
      ],
      [
        "o",
        "ver"
      ],
      [
        "re",
        "e"
      ],
      [
        "----",
        "----"
      ],
      [
        "Ġa",
        "ct"
      ],
      [
        "Ġthe",
        "re"
      ],
      [
        "y",
        "s"
      ],
      [
        ")",
        "."
      ],
      [
        "ra",
        "ct"
      ],
      [
        "u",
        "b"
      ],
      [
        "p",
        "ect"
      ],
      [
        "âĢ",
        "Ŀ"
      ],
      [
        "st",
        "and"
      ],
      [
        "Ġm",
        "ay"
      ],
      [
        "p",
        "le"
      ],
      [
        "Ġa",
        "g"
      ],
      [
        "Ġwh",
        "at"
      ],
      [
        "c",
        "ess"
      ],
      [
        "al",
        "th"
      ],
      [
        "at",
        "ive"
      ],
      [
        "Ġ",
        "K"
      ],
      [
        "o",
        "ve"
      ],
      [
        "Ġa",
        "m"
      ],
      [
        "Ġpe",
        "ople"
      ],
      [
        "Ġ",
        "Y"
      ],
      [
        "Ġe",
        "ff"
      ],
      [
        "Ġex",
        "pl"
      ],
      [
        "o",
        "b"
      ],
      [
        "Ġh",
        "is"
      ],
      [
        "Ġle",
        "arn"
      ],
      [
        "et",
        "h"
[...]
